{
  "version": "1.0",
  "truncation": null,
  "padding": null,
  "added_tokens": [
    {
      "id": 0,
      "content": "[PAD]",
      "single_word": false,
      "lstrip": false,
      "rstrip": false,
      "normalized": false,
      "special": true
    },
    {
      "id": 1,
      "content": "[UNK]",
      "single_word": false,
      "lstrip": false,
      "rstrip": false,
      "normalized": false,
      "special": true
    },
    {
      "id": 2,
      "content": "[CLS]",
      "single_word": false,
      "lstrip": false,
      "rstrip": false,
      "normalized": false,
      "special": true
    },
    {
      "id": 3,
      "content": "[SEP]",
      "single_word": false,
      "lstrip": false,
      "rstrip": false,
      "normalized": false,
      "special": true
    },
    {
      "id": 4,
      "content": "[MASK]",
      "single_word": false,
      "lstrip": false,
      "rstrip": false,
      "normalized": false,
      "special": true
    },
    {
      "id": 5,
      "content": "\n",
      "single_word": false,
      "lstrip": false,
      "rstrip": false,
      "normalized": false,
      "special": true
    }
  ],
  "normalizer": null,
  "pre_tokenizer": {
    "type": "Whitespace"
  },
  "post_processor": null,
  "decoder": null,
  "model": {
    "type": "WordPiece",
    "unk_token": "[UNK]",
    "continuing_subword_prefix": "##",
    "max_input_chars_per_word": 100,
    "vocab": {
      "[PAD]": 0,
      "[UNK]": 1,
      "[CLS]": 2,
      "[SEP]": 3,
      "[MASK]": 4,
      "\n": 5,
      "`": 6,
      "a": 7,
      "b": 8,
      "c": 9,
      "d": 10,
      "e": 11,
      "f": 12,
      "g": 13,
      "h": 14,
      "i": 15,
      "j": 16,
      "k": 17,
      "l": 18,
      "m": 19,
      "n": 20,
      "o": 21,
      "p": 22,
      "q": 23,
      "r": 24,
      "s": 25,
      "t": 26,
      "u": 27,
      "v": 28,
      "w": 29,
      "x": 30,
      "y": 31,
      "z": 32,
      "¢": 33,
      "­": 34,
      "²": 35,
      "´": 36,
      "µ": 37,
      "à": 38,
      "á": 39,
      "â": 40,
      "ã": 41,
      "ä": 42,
      "è": 43,
      "é": 44,
      "ê": 45,
      "ì": 46,
      "í": 47,
      "ò": 48,
      "ó": 49,
      "ô": 50,
      "õ": 51,
      "ö": 52,
      "ø": 53,
      "ù": 54,
      "ú": 55,
      "ý": 56,
      "ÿ": 57,
      "ā": 58,
      "ă": 59,
      "đ": 60,
      "ē": 61,
      "ĩ": 62,
      "ũ": 63,
      "ơ": 64,
      "ư": 65,
      "ǹ": 66,
      "̀": 67,
      "́": 68,
      "̂": 69,
      "̃": 70,
      "̉": 71,
      "̣": 72,
      "с": 73,
      "ṃ": 74,
      "ạ": 75,
      "ả": 76,
      "ấ": 77,
      "ầ": 78,
      "ẩ": 79,
      "ẫ": 80,
      "ậ": 81,
      "ắ": 82,
      "ằ": 83,
      "ẳ": 84,
      "ẵ": 85,
      "ặ": 86,
      "ẹ": 87,
      "ẻ": 88,
      "ẽ": 89,
      "ế": 90,
      "ề": 91,
      "ể": 92,
      "ễ": 93,
      "ệ": 94,
      "ỉ": 95,
      "ị": 96,
      "ọ": 97,
      "ỏ": 98,
      "ố": 99,
      "ồ": 100,
      "ổ": 101,
      "ỗ": 102,
      "ộ": 103,
      "ớ": 104,
      "ờ": 105,
      "ở": 106,
      "ỡ": 107,
      "ợ": 108,
      "ụ": 109,
      "ủ": 110,
      "ứ": 111,
      "ừ": 112,
      "ử": 113,
      "ữ": 114,
      "ự": 115,
      "ỳ": 116,
      "ỵ": 117,
      "ỷ": 118,
      "ỹ": 119,
      "​": 120,
      "‍": 121,
      "₫": 122,
      "❤": 123,
      "️": 124,
      "￼": 125,
      "##ỳ": 126,
      "##ặ": 127,
      "##m": 128,
      "##h": 129,
      "##ó": 130,
      "##ị": 131,
      "##u": 132,
      "##o": 133,
      "##p": 134,
      "##r": 135,
      "##à": 136,
      "##n": 137,
      "##ồ": 138,
      "##â": 139,
      "##á": 140,
      "##c": 141,
      "##i": 142,
      "##ế": 143,
      "##g": 144,
      "##ậ": 145,
      "##y": 146,
      "##é": 147,
      "##ủ": 148,
      "##ẩ": 149,
      "##ề": 150,
      "##ã": 151,
      "##t": 152,
      "##ờ": 153,
      "##a": 154,
      "##ù": 155,
      "##ô": 156,
      "##ư": 157,
      "##í": 158,
      "##ụ": 159,
      "##ớ": 160,
      "##õ": 161,
      "##ắ": 162,
      "##ẫ": 163,
      "##ổ": 164,
      "##e": 165,
      "##ê": 166,
      "##ứ": 167,
      "##b": 168,
      "##ì": 169,
      "##ò": 170,
      "##ấ": 171,
      "##ợ": 172,
      "##ệ": 173,
      "##ú": 174,
      "##ẵ": 175,
      "##è": 176,
      "##ý": 177,
      "##ạ": 178,
      "##ẹ": 179,
      "##ẳ": 180,
      "##ỗ": 181,
      "##ừ": 182,
      "##ể": 183,
      "##ỡ": 184,
      "##ố": 185,
      "##ả": 186,
      "##ở": 187,
      "##ỉ": 188,
      "##ự": 189,
      "##ộ": 190,
      "##ẻ": 191,
      "##ỹ": 192,
      "##ơ": 193,
      "##ầ": 194,
      "##ỏ": 195,
      "##ă": 196,
      "##ĩ": 197,
      "##d": 198,
      "##ằ": 199,
      "##ọ": 200,
      "##k": 201,
      "##ữ": 202,
      "##ā": 203,
      "##ũ": 204,
      "##ỷ": 205,
      "##ẽ": 206,
      "##ễ": 207,
      "##ử": 208,
      "##v": 209,
      "##s": 210,
      "##ỵ": 211,
      "##j": 212,
      "##l": 213,
      "##̀": 214,
      "##̉": 215,
      "##f": 216,
      "##w": 217,
      "##́": 218,
      "##µ": 219,
      "##￼": 220,
      "##đ": 221,
      "##­": 222,
      "##̣": 223,
      "##x": 224,
      "##z": 225,
      "##ø": 226,
      "##ä": 227,
      "##ǹ": 228,
      "##ṃ": 229,
      "##ē": 230,
      "##ö": 231,
      "##q": 232,
      "##️": 233,
      "##ng": 234,
      "th": 235,
      "##nh": 236,
      "ch": 237,
      "ng": 238,
      "tr": 239,
      "nh": 240,
      "##ời": 241,
      "gi": 242,
      "kh": 243,
      "##ình": 244,
      "##ươ": 245,
      "##ên": 246,
      "##ương": 247,
      "##ao": 248,
      "qu": 249,
      "ph": 250,
      "##ông": 251,
      "##ay": 252,
      "##ân": 253,
      "##ười": 254,
      "##iề": 255,
      "##ôi": 256,
      "##iế": 257,
      "em": 258,
      "##ào": 259,
      "là": 260,
      "##ưa": 261,
      "tình": 262,
      "##ong": 263,
      "##on": 264,
      "mộ": 265,
      "##ang": 266,
      "##êu": 267,
      "người": 268,
      "##âu": 269,
      "##uy": 270,
      "##ày": 271,
      "##àng": 272,
      "##ây": 273,
      "xa": 274,
      "##ồng": 275,
      "##ai": 276,
      "##ơi": 277,
      "##ườ": 278,
      "##ướ": 279,
      "về": 280,
      "##òng": 281,
      "##ần": 282,
      "##an": 283,
      "một": 284,
      "##ường": 285,
      "##iều": 286,
      "lạ": 287,
      "con": 288,
      "##au": 289,
      "##òn": 290,
      "anh": 291,
      "đi": 292,
      "##ầu": 293,
      "##ắng": 294,
      "ngh": 295,
      "##ồi": 296,
      "đời": 297,
      "##inh": 298,
      "nhớ": 299,
      "cho": 300,
      "thơ": 301,
      "ta": 302,
      "thương": 303,
      "ho": 304,
      "##ăm": 305,
      "yêu": 306,
      "mà": 307,
      "##ồn": 308,
      "##ất": 309,
      "ngày": 310,
      "##ước": 311,
      "##êm": 312,
      "xu": 313,
      "như": 314,
      "trời": 315,
      "cá": 316,
      "có": 317,
      "##áng": 318,
      "còn": 319,
      "lòng": 320,
      "mình": 321,
      "ai": 322,
      "##ến": 323,
      "không": 324,
      "##anh": 325,
      "##àn": 326,
      "##ượ": 327,
      "hoa": 328,
      "##ôn": 329,
      "##ùng": 330,
      "##ăng": 331,
      "##ành": 332,
      "##ung": 333,
      "##óng": 334,
      "##ối": 335,
      "##ới": 336,
      "##ấy": 337,
      "trong": 338,
      "##ừng": 339,
      "bao": 340,
      "lại": 341,
      "đã": 342,
      "bu": 343,
      "gió": 344,
      "mẹ": 345,
      "##ắm": 346,
      "##ch": 347,
      "sao": 348,
      "##ẫn": 349,
      "xuân": 350,
      "##iền": 351,
      "nhà": 352,
      "##ắt": 353,
      "##iệ": 354,
      "để": 355,
      "##ẳng": 356,
      "đêm": 357,
      "cũ": 358,
      "##iết": 359,
      "thu": 360,
      "cả": 361,
      "quê": 362,
      "##át": 363,
      "đường": 364,
      "chi": 365,
      "ti": 366,
      "##ài": 367,
      "##úc": 368,
      "##ổi": 369,
      "##ái": 370,
      "##ết": 371,
      "chiều": 372,
      "vu": 373,
      "năm": 374,
      "##ững": 375,
      "##eo": 376,
      "đâu": 377,
      "chẳng": 378,
      "lời": 379,
      "##ải": 380,
      "##ống": 381,
      "tôi": 382,
      "vẫn": 383,
      "mưa": 384,
      "mơ": 385,
      "qua": 386,
      "nắng": 387,
      "vào": 388,
      "hương": 389,
      "cu": 390,
      "cũng": 391,
      "nhau": 392,
      "tiế": 393,
      "##ỗi": 394,
      "ơi": 395,
      "##ắc": 396,
      "bên": 397,
      "##ùa": 398,
      "ra": 399,
      "mu": 400,
      "##uyên": 401,
      "nào": 402,
      "giờ": 403,
      "nước": 404,
      "##ốn": 405,
      "làm": 406,
      "xưa": 407,
      "rồi": 408,
      "##ợi": 409,
      "##ầy": 410,
      "trăng": 411,
      "thì": 412,
      "##ạn": 413,
      "##ọt": 414,
      "những": 415,
      "tay": 416,
      "##ận": 417,
      "chờ": 418,
      "buồn": 419,
      "cùng": 420,
      "nay": 421,
      "vàng": 422,
      "vui": 423,
      "##iên": 424,
      "xanh": 425,
      "##ãi": 426,
      "##ật": 427,
      "##ầm": 428,
      "##ơn": 429,
      "tiếng": 430,
      "đến": 431,
      "bóng": 432,
      "##ói": 433,
      "tu": 434,
      "##iêu": 435,
      "mong": 436,
      "##âm": 437,
      "##ặng": 438,
      "sông": 439,
      "##óc": 440,
      "##ội": 441,
      "##ữa": 442,
      "##ộc": 443,
      "##ìm": 444,
      "##ược": 445,
      "hò": 446,
      "cười": 447,
      "##ửa": 448,
      "##ằng": 449,
      "đôi": 450,
      "biết": 451,
      "##ền": 452,
      "##en": 453,
      "mùa": 454,
      "mắt": 455,
      "câu": 456,
      "hồng": 457,
      "##ạt": 458,
      "tháng": 459,
      "duyên": 460,
      "đó": 461,
      "mây": 462,
      "với": 463,
      "##uyệ": 464,
      "nơi": 465,
      "thời": 466,
      "trên": 467,
      "được": 468,
      "lá": 469,
      "ướ": 470,
      "mãi": 471,
      "thân": 472,
      "đây": 473,
      "chân": 474,
      "mê": 475,
      "mặ": 476,
      "lên": 477,
      "gì": 478,
      "đầu": 479,
      "khi": 480,
      "say": 481,
      "hai": 482,
      "##ức": 483,
      "từ": 484,
      "ru": 485,
      "nỗi": 486,
      "##út": 487,
      "đông": 488,
      "##ập": 489,
      "chỉ": 490,
      "##ươi": 491,
      "##ọc": 492,
      "đợi": 493,
      "vương": 494,
      "thế": 495,
      "thấy": 496,
      "này": 497,
      "nghĩ": 498,
      "tìm": 499,
      "hồn": 500,
      "##iể": 501,
      "mộng": 502,
      "đồng": 503,
      "##ìn": 504,
      "bay": 505,
      "##ẹp": 506,
      "##ác": 507,
      "bờ": 508,
      "##ại": 509,
      "thành": 510,
      "tim": 511,
      "phải": 512,
      "##ọi": 513,
      "##ừa": 514,
      "cứ": 515,
      "##ánh": 516,
      "đất": 517,
      "đẹp": 518,
      "sương": 519,
      "cha": 520,
      "rơi": 521,
      "nhiều": 522,
      "##ẹn": 523,
      "nghe": 524,
      "cánh": 525,
      "thôi": 526,
      "##ỏi": 527,
      "gian": 528,
      "##êng": 529,
      "chung": 530,
      "sang": 531,
      "vì": 532,
      "mới": 533,
      "cuộc": 534,
      "##uyền": 535,
      "gh": 536,
      "theo": 537,
      "bước": 538,
      "tâm": 539,
      "##ưng": 540,
      "mai": 541,
      "ba": 542,
      "cao": 543,
      "##ăn": 544,
      "##ấn": 545,
      "##ót": 546,
      "cái": 547,
      "sầu": 548,
      "nhìn": 549,
      "tuổi": 550,
      "ngọt": 551,
      "tí": 552,
      "bình": 553,
      "giữa": 554,
      "ước": 555,
      "cô": 556,
      "##ạc": 557,
      "chưa": 558,
      "mấy": 559,
      "##iêng": 560,
      "##ọn": 561,
      "##am": 562,
      "chồng": 563,
      "bến": 564,
      "##âng": 565,
      "##ốt": 566,
      "##ủa": 567,
      "##ắp": 568,
      "đau": 569,
      "mang": 570,
      "trường": 571,
      "##ôm": 572,
      "cây": 573,
      "##èo": 574,
      "sáng": 575,
      "##ạnh": 576,
      "lu": 577,
      "hay": 578,
      "đưa": 579,
      "đầy": 580,
      "già": 581,
      "thắm": 582,
      "dài": 583,
      "cầu": 584,
      "thề": 585,
      "##ách": 586,
      "nàng": 587,
      "hình": 588,
      "ngồi": 589,
      "hết": 590,
      "hôm": 591,
      "đứ": 592,
      "lo": 593,
      "sắc": 594,
      "áo": 595,
      "nụ": 596,
      "ấy": 597,
      "trắng": 598,
      "sóng": 599,
      "##iệt": 600,
      "xinh": 601,
      "##ấc": 602,
      "tươi": 603,
      "##ọng": 604,
      "sống": 605,
      "##ẩn": 606,
      "##ục": 607,
      "nhân": 608,
      "nồng": 609,
      "nên": 610,
      "non": 611,
      "kiế": 612,
      "dòng": 613,
      "##ộng": 614,
      "môi": 615,
      "chơi": 616,
      "tóc": 617,
      "làng": 618,
      "kho": 619,
      "##uyện": 620,
      "##iển": 621,
      "bạn": 622,
      "##ặp": 623,
      "sinh": 624,
      "nói": 625,
      "chiế": 626,
      "##úng": 627,
      "thả": 628,
      "của": 629,
      "##ằm": 630,
      "lạnh": 631,
      "##áu": 632,
      "đừng": 633,
      "nghĩa": 634,
      "ngàn": 635,
      "vô": 636,
      "tự": 637,
      "##ớm": 638,
      "##ấu": 639,
      "ca": 640,
      "thật": 641,
      "ấm": 642,
      "muôn": 643,
      "thêm": 644,
      "lệ": 645,
      "##ởi": 646,
      "gần": 647,
      "biển": 648,
      "##án": 649,
      "tư": 650,
      "##õi": 651,
      "##em": 652,
      "tho": 653,
      "gặp": 654,
      "##in": 655,
      "##ốc": 656,
      "##ộn": 657,
      "giấc": 658,
      "từng": 659,
      "bà": 660,
      "ông": 661,
      "trao": 662,
      "dạ": 663,
      "ánh": 664,
      "##ực": 665,
      "##ùi": 666,
      "tơ": 667,
      "lần": 668,
      "##ét": 669,
      "xin": 670,
      "##ấm": 671,
      "màu": 672,
      "quên": 673,
      "##ửi": 674,
      "vừa": 675,
      "bỏ": 676,
      "sau": 677,
      "vợ": 678,
      "hàng": 679,
      "##úi": 680,
      "ngào": 681,
      "sớm": 682,
      "gọi": 683,
      "gửi": 684,
      "##éo": 685,
      "giọt": 686,
      "sâu": 687,
      "##ấp": 688,
      "##ảng": 689,
      "dị": 690,
      "thuyền": 691,
      "nhiêu": 692,
      "##áo": 693,
      "lặng": 694,
      "chu": 695,
      "cõi": 696,
      "công": 697,
      "vơi": 698,
      "tiền": 699,
      "ngơ": 700,
      "##ơm": 701,
      "dân": 702,
      "rằng": 703,
      "su": 704,
      "nở": 705,
      "đò": 706,
      "chia": 707,
      "bây": 708,
      "tỏ": 709,
      "chí": 710,
      "chị": 711,
      "chim": 712,
      "đang": 713,
      "vấn": 714,
      "hòa": 715,
      "má": 716,
      "chữ": 717,
      "thanh": 718,
      "trông": 719,
      "đào": 720,
      "ki": 721,
      "đón": 722,
      "nửa": 723,
      "linh": 724,
      "##ão": 725,
      "lắm": 726,
      "hẹn": 727,
      "##ậm": 728,
      "lối": 729,
      "ăn": 730,
      "trôi": 731,
      "##ưới": 732,
      "trái": 733,
      "điều": 734,
      "dáng": 735,
      "đàn": 736,
      "gái": 737,
      "tha": 738,
      "kiếp": 739,
      "cảnh": 740,
      "trần": 741,
      "đá": 742,
      "nhẹ": 743,
      "cuối": 744,
      "cách": 745,
      "quy": 746,
      "núi": 747,
      "miền": 748,
      "##ắn": 749,
      "##ậy": 750,
      "ngang": 751,
      "vần": 752,
      "muốn": 753,
      "##iềm": 754,
      "phúc": 755,
      "chút": 756,
      "##ảy": 757,
      "khó": 758,
      "mỗi": 759,
      "tan": 760,
      "hờ": 761,
      "##ạo": 762,
      "cỏ": 763,
      "nhỏ": 764,
      "phương": 765,
      "thơm": 766,
      "dù": 767,
      "yên": 768,
      "hát": 769,
      "##úa": 770,
      "hôn": 771,
      "đứng": 772,
      "mờ": 773,
      "thường": 774,
      "##ụng": 775,
      "lành": 776,
      "##ặt": 777,
      "##uyệt": 778,
      "thầm": 779,
      "giữ": 780,
      "##ảo": 781,
      "xuống": 782,
      "ân": 783,
      "chợ": 784,
      "trở": 785,
      "nghiêng": 786,
      "hỏi": 787,
      "##ênh": 788,
      "bạc": 789,
      "hạnh": 790,
      "lạc": 791,
      "thiên": 792,
      "##òai": 793,
      "cay": 794,
      "niềm": 795,
      "xao": 796,
      "đà": 797,
      "khu": 798,
      "lúc": 799,
      "vắng": 800,
      "minh": 801,
      "mặt": 802,
      "luôn": 803,
      "mái": 804,
      "khổ": 805,
      "đành": 806,
      "ngẩn": 807,
      "cơn": 808,
      "kia": 809,
      "##ườn": 810,
      "tàn": 811,
      "đỏ": 812,
      "cành": 813,
      "nhưng": 814,
      "vời": 815,
      "phận": 816,
      "##ởng": 817,
      "trước": 818,
      "tím": 819,
      "mười": 820,
      "tròn": 821,
      "hồi": 822,
      "chuyện": 823,
      "nằm": 824,
      "trăm": 825,
      "lâu": 826,
      "trang": 827,
      "xót": 828,
      "thuở": 829,
      "thức": 830,
      "##ãy": 831,
      "sẽ": 832,
      "tương": 833,
      "canh": 834,
      "##ượng": 835,
      "thay": 836,
      "hiền": 837,
      "quá": 838,
      "đình": 839,
      "cần": 840,
      "ngời": 841,
      "phố": 842,
      "vườn": 843,
      "an": 844,
      "bề": 845,
      "tràn": 846,
      "lớ": 847,
      "khắp": 848,
      "tà": 849,
      "son": 850,
      "lung": 851,
      "họ": 852,
      "cảm": 853,
      "cháu": 854,
      "quanh": 855,
      "tiên": 856,
      "ôm": 857,
      "trẻ": 858,
      "##ám": 859,
      "##ịp": 860,
      "##oi": 861,
      "khúc": 862,
      "ngắm": 863,
      "vai": 864,
      "rất": 865,
      "sân": 866,
      "##iệm": 867,
      "hè": 868,
      "chúng": 869,
      "mòn": 870,
      "ngủ": 871,
      "chàng": 872,
      "la": 873,
      "tới": 874,
      "mênh": 875,
      "trọn": 876,
      "chốn": 877,
      "bốn": 878,
      "rượ": 879,
      "##ướng": 880,
      "dưới": 881,
      "nặng": 882,
      "mặn": 883,
      "buông": 884,
      "kẻ": 885,
      "học": 886,
      "êm": 887,
      "##én": 888,
      "ngòai": 889,
      "##ạng": 890,
      "phai": 891,
      "##uyến": 892,
      "hơn": 893,
      "hãy": 894,
      "mất": 895,
      "##ứa": 896,
      "đắng": 897,
      "trưa": 898,
      "đơn": 899,
      "thăm": 900,
      "lấy": 901,
      "đo": 902,
      "vọng": 903,
      "rượu": 904,
      "bát": 905,
      "sa": 906,
      "nao": 907,
      "##ưu": 908,
      "khuy": 909,
      "to": 910,
      "mừng": 911,
      "vòng": 912,
      "phong": 913,
      "mọi": 914,
      "##òa": 915,
      "hội": 916,
      "dịu": 917,
      "chào": 918,
      "nhạt": 919,
      "ngu": 920,
      "nghèo": 921,
      "nu": 922,
      "thiết": 923,
      "càng": 924,
      "chúc": 925,
      "nam": 926,
      "kết": 927,
      "thờ": 928,
      "##iếu": 929,
      "gia": 930,
      "##ỉnh": 931,
      "##ậu": 932,
      "ngo": 933,
      "màng": 934,
      "rừng": 935,
      "cửa": 936,
      "tặng": 937,
      "chiến": 938,
      "nó": 939,
      "đong": 940,
      "##ẫu": 941,
      "may": 942,
      "##ảnh": 943,
      "lúa": 944,
      "vơ": 945,
      "##ềm": 946,
      "##iễ": 947,
      "đắm": 948,
      "thi": 949,
      "phần": 950,
      "thủ": 951,
      "nợ": 952,
      "hòang": 953,
      "hạ": 954,
      "##óa": 955,
      "hạt": 956,
      "##ượt": 957,
      "rời": 958,
      "mặc": 959,
      "cơm": 960,
      "tuyệt": 961,
      "giá": 962,
      "##ép": 963,
      "##ỡi": 964,
      "lưng": 965,
      "lỡ": 966,
      "đổ": 967,
      "nhịp": 968,
      "##ịt": 969,
      "trải": 970,
      "##ẻo": 971,
      "đổi": 972,
      "mông": 973,
      "ly": 974,
      "khóc": 975,
      "đu": 976,
      "##ỗng": 977,
      "ơn": 978,
      "ngọn": 979,
      "dâng": 980,
      "âm": 981,
      "mời": 982,
      "bông": 983,
      "viết": 984,
      "khói": 985,
      "niệm": 986,
      "đê": 987,
      "bằng": 988,
      "ngập": 989,
      "bồi": 990,
      "bão": 991,
      "khơi": 992,
      "tranh": 993,
      "##iện": 994,
      "bài": 995,
      "lục": 996,
      "đem": 997,
      "ái": 998,
      "bàn": 999,
      "lớn": 1000,
      "nổi": 1001,
      "##ện": 1002,
      "ngân": 1003,
      "ngỡ": 1004,
      "hành": 1005,
      "long": 1006,
      "bỗng": 1007,
      "thể": 1008,
      "quả": 1009,
      "##iệc": 1010,
      "tưởng": 1011,
      "dương": 1012,
      "chín": 1013,
      "các": 1014,
      "tin": 1015,
      "lao": 1016,
      "hồ": 1017,
      "nữa": 1018,
      "vang": 1019,
      "##èn": 1020,
      "vội": 1021,
      "bồng": 1022,
      "trai": 1023,
      "lẽ": 1024,
      "xe": 1025,
      "##ột": 1026,
      "ngờ": 1027,
      "kí": 1028,
      "ngọc": 1029,
      "ban": 1030,
      "khắc": 1031,
      "rụng": 1032,
      "chiếc": 1033,
      "##èm": 1034,
      "tỏa": 1035,
      "##ẩy": 1036,
      "mù": 1037,
      "giăng": 1038,
      "tết": 1039,
      "xem": 1040,
      "ao": 1041,
      "mươi": 1042,
      "héo": 1043,
      "##ớt": 1044,
      "nế": 1045,
      "thần": 1046,
      "ngần": 1047,
      "lửa": 1048,
      "mở": 1049,
      "hoang": 1050,
      "##ướm": 1051,
      "du": 1052,
      "gieo": 1053,
      "hư": 1054,
      "trầu": 1055,
      "mua": 1056,
      "##ụi": 1057,
      "bướm": 1058,
      "cau": 1059,
      "dấu": 1060,
      "đa": 1061,
      "khuya": 1062,
      "kỷ": 1063,
      "sợi": 1064,
      "##óm": 1065,
      "bởi": 1066,
      "dần": 1067,
      "##ích": 1068,
      "quân": 1069,
      "dạt": 1070,
      "ngóng": 1071,
      "trung": 1072,
      "việc": 1073,
      "rạng": 1074,
      "ngây": 1075,
      "xo": 1076,
      "riêng": 1077,
      "đậm": 1078,
      "nữ": 1079,
      "thưa": 1080,
      "ngay": 1081,
      "gánh": 1082,
      "dẫu": 1083,
      "cò": 1084,
      "bác": 1085,
      "vậy": 1086,
      "bán": 1087,
      "tinh": 1088,
      "##íu": 1089,
      "khát": 1090,
      "buổi": 1091,
      "ướt": 1092,
      "biế": 1093,
      "dâu": 1094,
      "##úp": 1095,
      "##ượn": 1096,
      "chớ": 1097,
      "##ệt": 1098,
      "da": 1099,
      "tài": 1100,
      "dặ": 1101,
      "sơn": 1102,
      "nhung": 1103,
      "nhòa": 1104,
      "rộn": 1105,
      "chạ": 1106,
      "phiền": 1107,
      "nhiên": 1108,
      "mát": 1109,
      "nét": 1110,
      "đủ": 1111,
      "hiể": 1112,
      "hơi": 1113,
      "mỏi": 1114,
      "nẻo": 1115,
      "hờn": 1116,
      "giao": 1117,
      "trách": 1118,
      "tuôn": 1119,
      "phượng": 1120,
      "##áy": 1121,
      "ghi": 1122,
      "chan": 1123,
      "hỡi": 1124,
      "phủ": 1125,
      "##ếm": 1126,
      "##om": 1127,
      "chảy": 1128,
      "trả": 1129,
      "##ẫm": 1130,
      "lai": 1131,
      "bất": 1132,
      "hà": 1133,
      "tối": 1134,
      "sức": 1135,
      "soi": 1136,
      "biệt": 1137,
      "hóa": 1138,
      "lũ": 1139,
      "dại": 1140,
      "##ìa": 1141,
      "thầy": 1142,
      "xóm": 1143,
      "thủy": 1144,
      "tấm": 1145,
      "tựa": 1146,
      "đứa": 1147,
      "dào": 1148,
      "danh": 1149,
      "xứ": 1150,
      "nguyện": 1151,
      "ngát": 1152,
      "nhanh": 1153,
      "quan": 1154,
      "đánh": 1155,
      "nguyên": 1156,
      "chao": 1157,
      "suốt": 1158,
      "bắc": 1159,
      "diều": 1160,
      "gầy": 1161,
      "chìm": 1162,
      "rộng": 1163,
      "việt": 1164,
      "cầm": 1165,
      "mềm": 1166,
      "phù": 1167,
      "sự": 1168,
      "cổ": 1169,
      "liền": 1170,
      "liêu": 1171,
      "nuôi": 1172,
      "suối": 1173,
      "##ãng": 1174,
      "lan": 1175,
      "xây": 1176,
      "trào": 1177,
      "##ướt": 1178,
      "cung": 1179,
      "tỉnh": 1180,
      "than": 1181,
      "xong": 1182,
      "bụi": 1183,
      "trùng": 1184,
      "nhu": 1185,
      "thang": 1186,
      "ngõ": 1187,
      "thềm": 1188,
      "tre": 1189,
      "##ản": 1190,
      "bơ": 1191,
      "mảnh": 1192,
      "manh": 1193,
      "cố": 1194,
      "##iệu": 1195,
      "##ịnh": 1196,
      "##ạch": 1197,
      "phiêu": 1198,
      "si": 1199,
      "ruộng": 1200,
      "mối": 1201,
      "lụ": 1202,
      "lưu": 1203,
      "vẹn": 1204,
      "vùng": 1205,
      "bi": 1206,
      "nối": 1207,
      "trầm": 1208,
      "mi": 1209,
      "nhé": 1210,
      "điệ": 1211,
      "ngà": 1212,
      "cờ": 1213,
      "che": 1214,
      "khôn": 1215,
      "chăm": 1216,
      "dưng": 1217,
      "đồi": 1218,
      "vất": 1219,
      "##ằn": 1220,
      "khách": 1221,
      "cà": 1222,
      "nguồn": 1223,
      "tính": 1224,
      "gà": 1225,
      "tên": 1226,
      "làn": 1227,
      "##ầng": 1228,
      "vạn": 1229,
      "##õng": 1230,
      "hiểu": 1231,
      "uống": 1232,
      "dặm": 1233,
      "khăn": 1234,
      "bảo": 1235,
      "cơ": 1236,
      "##ờn": 1237,
      "tiếc": 1238,
      "thoảng": 1239,
      "vài": 1240,
      "ngon": 1241,
      "và": 1242,
      "rực": 1243,
      "dành": 1244,
      "vân": 1245,
      "nếu": 1246,
      "##iu": 1247,
      "vỡ": 1248,
      "đèn": 1249,
      "ràng": 1250,
      "mau": 1251,
      "tận": 1252,
      "chợt": 1253,
      "chắc": 1254,
      "vả": 1255,
      "ngả": 1256,
      "chịu": 1257,
      "rào": 1258,
      "tuy": 1259,
      "thổi": 1260,
      "cạn": 1261,
      "phí": 1262,
      "tê": 1263,
      "kiều": 1264,
      "vượt": 1265,
      "tại": 1266,
      "thẫn": 1267,
      "biếc": 1268,
      "mày": 1269,
      "quen": 1270,
      "lẻ": 1271,
      "tổ": 1272,
      "giận": 1273,
      "phân": 1274,
      "phật": 1275,
      "bắt": 1276,
      "bầu": 1277,
      "nhạc": 1278,
      "sẻ": 1279,
      "côi": 1280,
      "##ệnh": 1281,
      "đề": 1282,
      "dịch": 1283,
      "thiếu": 1284,
      "động": 1285,
      "thoáng": 1286,
      "lang": 1287,
      "chùa": 1288,
      "##ủi": 1289,
      "nhặt": 1290,
      "điể": 1291,
      "tử": 1292,
      "lay": 1293,
      "giúp": 1294,
      "quay": 1295,
      "bể": 1296,
      "thích": 1297,
      "xác": 1298,
      "##ít": 1299,
      "hào": 1300,
      "nát": 1301,
      "thở": 1302,
      "##ẫy": 1303,
      "##ộm": 1304,
      "chăng": 1305,
      "nhận": 1306,
      "miên": 1307,
      "sáo": 1308,
      "xiêu": 1309,
      "se": 1310,
      "thư": 1311,
      "hằng": 1312,
      "vi": 1313,
      "hững": 1314,
      "xôi": 1315,
      "ve": 1316,
      "khoe": 1317,
      "sen": 1318,
      "mầu": 1319,
      "tai": 1320,
      "gối": 1321,
      "nhàng": 1322,
      "ngậm": 1323,
      "hòai": 1324,
      "dàng": 1325,
      "số": 1326,
      "kiếm": 1327,
      "nâng": 1328,
      "bày": 1329,
      "điểm": 1330,
      "##ỏng": 1331,
      "heo": 1332,
      "pha": 1333,
      "trâu": 1334,
      "khỏ": 1335,
      "độ": 1336,
      "tần": 1337,
      "trò": 1338,
      "kinh": 1339,
      "im": 1340,
      "sợ": 1341,
      "hao": 1342,
      "vị": 1343,
      "khờ": 1344,
      "tiêu": 1345,
      "khô": 1346,
      "##ưởi": 1347,
      "đài": 1348,
      "thừa": 1349,
      "nhờ": 1350,
      "##ễn": 1351,
      "##ặc": 1352,
      "văn": 1353,
      "tái": 1354,
      "lễ": 1355,
      "ôi": 1356,
      "##iệng": 1357,
      "rưng": 1358,
      "in": 1359,
      "men": 1360,
      "##ặn": 1361,
      "chiêm": 1362,
      "phút": 1363,
      "ngùi": 1364,
      "quý": 1365,
      "##ợp": 1366,
      "bời": 1367,
      "dự": 1368,
      "thỏ": 1369,
      "dệt": 1370,
      "thị": 1371,
      "##ữu": 1372,
      "kỳ": 1373,
      "triền": 1374,
      "hữu": 1375,
      "tây": 1376,
      "tung": 1377,
      "vỗ": 1378,
      "dở": 1379,
      "đan": 1380,
      "thông": 1381,
      "nga": 1382,
      "đoạn": 1383,
      "man": 1384,
      "chén": 1385,
      "gom": 1386,
      "tất": 1387,
      "giang": 1388,
      "thê": 1389,
      "chết": 1390,
      "đen": 1391,
      "chê": 1392,
      "thôn": 1393,
      "##iễu": 1394,
      "tò": 1395,
      "mồ": 1396,
      "ngại": 1397,
      "quà": 1398,
      "rối": 1399,
      "dạo": 1400,
      "lơi": 1401,
      "phòng": 1402,
      "trống": 1403,
      "thấp": 1404,
      "máu": 1405,
      "vẻ": 1406,
      "##ịch": 1407,
      "não": 1408,
      "muộn": 1409,
      "ngất": 1410,
      "khao": 1411,
      "gương": 1412,
      "lơ": 1413,
      "dễ": 1414,
      "rét": 1415,
      "rau": 1416,
      "bé": 1417,
      "xuyến": 1418,
      "hu": 1419,
      "tường": 1420,
      "đùa": 1421,
      "lanh": 1422,
      "điệu": 1423,
      "no": 1424,
      "xuôi": 1425,
      "rã": 1426,
      "đức": 1427,
      "vững": 1428,
      "thèm": 1429,
      "nghẹn": 1430,
      "ong": 1431,
      "đảo": 1432,
      "ghé": 1433,
      "nương": 1434,
      "bè": 1435,
      "##ổn": 1436,
      "đại": 1437,
      "##iến": 1438,
      "khỏe": 1439,
      "##ạm": 1440,
      "bệnh": 1441,
      "mịt": 1442,
      "xế": 1443,
      "âu": 1444,
      "cát": 1445,
      "##ón": 1446,
      "bâng": 1447,
      "đạo": 1448,
      "gót": 1449,
      "mùi": 1450,
      "dầu": 1451,
      "giông": 1452,
      "##iệp": 1453,
      "chênh": 1454,
      "cày": 1455,
      "dậy": 1456,
      "sai": 1457,
      "lắng": 1458,
      "nông": 1459,
      "kề": 1460,
      "thinh": 1461,
      "lượn": 1462,
      "kêu": 1463,
      "tám": 1464,
      "châu": 1465,
      "lộc": 1466,
      "chứa": 1467,
      "phụ": 1468,
      "hiu": 1469,
      "ngã": 1470,
      "nguyệt": 1471,
      "tòan": 1472,
      "tơi": 1473,
      "phơi": 1474,
      "kéo": 1475,
      "hường": 1476,
      "chạy": 1477,
      "ấp": 1478,
      "chất": 1479,
      "đói": 1480,
      "đúng": 1481,
      "giàu": 1482,
      "sắt": 1483,
      "quần": 1484,
      "trồng": 1485,
      "rung": 1486,
      "quốc": 1487,
      "bấy": 1488,
      "hiên": 1489,
      "đọng": 1490,
      "##iếng": 1491,
      "trúc": 1492,
      "níu": 1493,
      "chăn": 1494,
      "dây": 1495,
      "tô": 1496,
      "tao": 1497,
      "hùng": 1498,
      "##ẳm": 1499,
      "thâu": 1500,
      "cháy": 1501,
      "đếm": 1502,
      "khác": 1503,
      "miệng": 1504,
      "rỡ": 1505,
      "nhất": 1506,
      "sánh": 1507,
      "huyền": 1508,
      "##ứng": 1509,
      "##áp": 1510,
      "nàn": 1511,
      "mến": 1512,
      "##ính": 1513,
      "trinh": 1514,
      "nắm": 1515,
      "thẳm": 1516,
      "phấn": 1517,
      "cong": 1518,
      "mỏng": 1519,
      "vầng": 1520,
      "giật": 1521,
      "thứ": 1522,
      "ngoan": 1523,
      "##ển": 1524,
      "bàng": 1525,
      "dung": 1526,
      "tứ": 1527,
      "giống": 1528,
      "khỏi": 1529,
      "phía": 1530,
      "gạo": 1531,
      "thực": 1532,
      "tri": 1533,
      "dập": 1534,
      "nề": 1535,
      "đội": 1536,
      "vinh": 1537,
      "chú": 1538,
      "thao": 1539,
      "họa": 1540,
      "gởi": 1541,
      "lả": 1542,
      "##ổng": 1543,
      "nội": 1544,
      "quyện": 1545,
      "ngược": 1546,
      "##ựa": 1547,
      "dư": 1548,
      "bị": 1549,
      "khuâng": 1550,
      "##ượm": 1551,
      "tốt": 1552,
      "bềnh": 1553,
      "kính": 1554,
      "vật": 1555,
      "mỹ": 1556,
      "ảo": 1557,
      "chở": 1558,
      "thấm": 1559,
      "tủi": 1560,
      "thỏa": 1561,
      "suy": 1562,
      "thà": 1563,
      "cài": 1564,
      "##óp": 1565,
      "chèo": 1566,
      "lê": 1567,
      "lãng": 1568,
      "cải": 1569,
      "##ươn": 1570,
      "trà": 1571,
      "tạo": 1572,
      "liễu": 1573,
      "lờ": 1574,
      "xôn": 1575,
      "##ứt": 1576,
      "đáy": 1577,
      "quyết": 1578,
      "bưởi": 1579,
      "góc": 1580,
      "hiện": 1581,
      "kể": 1582,
      "tham": 1583,
      "dãi": 1584,
      "dám": 1585,
      "chuông": 1586,
      "do": 1587,
      "tiễn": 1588,
      "chua": 1589,
      "li": 1590,
      "song": 1591,
      "nhuộm": 1592,
      "rõ": 1593,
      "ngàng": 1594,
      "nỡ": 1595,
      "khoảng": 1596,
      "khuất": 1597,
      "nan": 1598,
      "dang": 1599,
      "sáu": 1600,
      "viên": 1601,
      "rằm": 1602,
      "sắp": 1603,
      "bừng": 1604,
      "nón": 1605,
      "ruột": 1606,
      "reo": 1607,
      "bảy": 1608,
      "chặt": 1609,
      "đượm": 1610,
      "chỗ": 1611,
      "nhường": 1612,
      "chính": 1613,
      "thái": 1614,
      "hái": 1615,
      "sử": 1616,
      "##ìu": 1617,
      "lùng": 1618,
      "dựng": 1619,
      "đàng": 1620,
      "kín": 1621,
      "ngừng": 1622,
      "ghê": 1623,
      "tội": 1624,
      "bớt": 1625,
      "thịt": 1626,
      "mải": 1627,
      "vụ": 1628,
      "hài": 1629,
      "lấp": 1630,
      "thơi": 1631,
      "nghìn": 1632,
      "cúc": 1633,
      "treo": 1634,
      "nghiệp": 1635,
      "giọng": 1636,
      "thẩn": 1637,
      "chừng": 1638,
      "ức": 1639,
      "lương": 1640,
      "lụa": 1641,
      "đam": 1642,
      "dao": 1643,
      "định": 1644,
      "ma": 1645,
      "hon": 1646,
      "bánh": 1647,
      "điên": 1648,
      "phu": 1649,
      "ít": 1650,
      "thảnh": 1651,
      "bữa": 1652,
      "##ĩnh": 1653,
      "ngâu": 1654,
      "hanh": 1655,
      "sĩ": 1656,
      "hợp": 1657,
      "bùi": 1658,
      "thù": 1659,
      "##ửng": 1660,
      "gợi": 1661,
      "dạy": 1662,
      "lớp": 1663,
      "ảnh": 1664,
      "bút": 1665,
      "đòan": 1666,
      "ký": 1667,
      "ngôi": 1668,
      "##ùm": 1669,
      "##iễn": 1670,
      "gói": 1671,
      "đáng": 1672,
      "nha": 1673,
      "bố": 1674,
      "vẽ": 1675,
      "phất": 1676,
      "hoan": 1677,
      "bản": 1678,
      "đẩy": 1679,
      "giả": 1680,
      "cất": 1681,
      "chả": 1682,
      "đậu": 1683,
      "tang": 1684,
      "đắp": 1685,
      "tuyết": 1686,
      "hải": 1687,
      "đền": 1688,
      "truyền": 1689,
      "chiếu": 1690,
      "nghỉ": 1691,
      "khen": 1692,
      "đều": 1693,
      "mượn": 1694,
      "hàn": 1695,
      "bãi": 1696,
      "ưu": 1697,
      "úa": 1698,
      "vùi": 1699,
      "vầy": 1700,
      "đẫm": 1701,
      "biên": 1702,
      "dừng": 1703,
      "nguy": 1704,
      "phường": 1705,
      "gốc": 1706,
      "di": 1707,
      "tích": 1708,
      "góp": 1709,
      "thoát": 1710,
      "thằng": 1711,
      "thổn": 1712,
      "tiết": 1713,
      "vờn": 1714,
      "##ãn": 1715,
      "ào": 1716,
      "lồng": 1717,
      "vàn": 1718,
      "phôi": 1719,
      "lội": 1720,
      "chuy": 1721,
      "##ơng": 1722,
      "cuốn": 1723,
      "yếm": 1724,
      "xăm": 1725,
      "đương": 1726,
      "cụ": 1727,
      "lý": 1728,
      "hiếu": 1729,
      "kìa": 1730,
      "nhọc": 1731,
      "chuyển": 1732,
      "hướng": 1733,
      "đềm": 1734,
      "đóa": 1735,
      "cồn": 1736,
      "đèo": 1737,
      "rong": 1738,
      "đua": 1739,
      "tàu": 1740,
      "lập": 1741,
      "tân": 1742,
      "hứa": 1743,
      "tắm": 1744,
      "ven": 1745,
      "đồ": 1746,
      "luyến": 1747,
      "quang": 1748,
      "đục": 1749,
      "thua": 1750,
      "bù": 1751,
      "bền": 1752,
      "rủ": 1753,
      "áp": 1754,
      "chạm": 1755,
      "lỗi": 1756,
      "thánh": 1757,
      "giây": 1758,
      "mắc": 1759,
      "giải": 1760,
      "võng": 1761,
      "sướng": 1762,
      "vẫy": 1763,
      "##ém": 1764,
      "đấy": 1765,
      "thấu": 1766,
      "trận": 1767,
      "bồ": 1768,
      "chập": 1769,
      "ương": 1770,
      "tiếp": 1771,
      "lam": 1772,
      "rì": 1773,
      "bèo": 1774,
      "ngỏ": 1775,
      "màn": 1776,
      "khẽ": 1777,
      "chôn": 1778,
      "băng": 1779,
      "chen": 1780,
      "trổ": 1781,
      "vươn": 1782,
      "khê": 1783,
      "ngó": 1784,
      "lứa": 1785,
      "tuần": 1786,
      "phi": 1787,
      "chuyên": 1788,
      "##ớn": 1789,
      "giường": 1790,
      "bế": 1791,
      "dìu": 1792,
      "mật": 1793,
      "bẽ": 1794,
      "vũ": 1795,
      "co": 1796,
      "chuyến": 1797,
      "quán": 1798,
      "xô": 1799,
      "trí": 1800,
      "ngoại": 1801,
      "mạnh": 1802,
      "bầy": 1803,
      "mượt": 1804,
      "hận": 1805,
      "rũ": 1806,
      "tru": 1807,
      "nhàu": 1808,
      "hy": 1809,
      "vay": 1810,
      "giặc": 1811,
      "lầm": 1812,
      "đỡ": 1813,
      "thuốc": 1814,
      "nhắn": 1815,
      "thắp": 1816,
      "xoay": 1817,
      "khiến": 1818,
      "vò": 1819,
      "hót": 1820,
      "tả": 1821,
      "dùng": 1822,
      "cạnh": 1823,
      "ngăn": 1824,
      "cực": 1825,
      "bổng": 1826,
      "lặn": 1827,
      "neo": 1828,
      "##ẩm": 1829,
      "đỉnh": 1830,
      "thuận": 1831,
      "dày": 1832,
      "quạnh": 1833,
      "vạt": 1834,
      "kim": 1835,
      "báo": 1836,
      "dải": 1837,
      "dầm": 1838,
      "thướt": 1839,
      "mài": 1840,
      "gắn": 1841,
      "xương": 1842,
      "thủa": 1843,
      "hề": 1844,
      "thăng": 1845,
      "cứu": 1846,
      "##ĩu": 1847,
      "giấu": 1848,
      "cào": 1849,
      "huy": 1850,
      "đọc": 1851,
      "##ẵn": 1852,
      "trề": 1853,
      "nhắc": 1854,
      "mầm": 1855,
      "quỳ": 1856,
      "hắt": 1857,
      "ươm": 1858,
      "tạm": 1859,
      "tầm": 1860,
      "giã": 1861,
      "vẳng": 1862,
      "thâm": 1863,
      "rơm": 1864,
      "thẳng": 1865,
      "khoai": 1866,
      "trình": 1867,
      "lẫn": 1868,
      "##ịa": 1869,
      "lướt": 1870,
      "đầm": 1871,
      "lùa": 1872,
      "đảng": 1873,
      "phát": 1874,
      "nghề": 1875,
      "khép": 1876,
      "vờ": 1877,
      "chủ": 1878,
      "sơ": 1879,
      "##ềnh": 1880,
      "uy": 1881,
      "nghi": 1882,
      "thác": 1883,
      "lính": 1884,
      "##ỡng": 1885,
      "cớ": 1886,
      "thắng": 1887,
      "bức": 1888,
      "ngắn": 1889,
      "trĩu": 1890,
      "chồi": 1891,
      "ngô": 1892,
      "buốt": 1893,
      "nấu": 1894,
      "xúc": 1895,
      "kiêu": 1896,
      "rớt": 1897,
      "nóng": 1898,
      "tập": 1899,
      "##ếu": 1900,
      "thất": 1901,
      "lìa": 1902,
      "vành": 1903,
      "thiện": 1904,
      "giáo": 1905,
      "leo": 1906,
      "địa": 1907,
      "thiêng": 1908,
      "so": 1909,
      "độc": 1910,
      "thẹn": 1911,
      "##iếp": 1912,
      "mưu": 1913,
      "giới": 1914,
      "phùng": 1915,
      "xốn": 1916,
      "giế": 1917,
      "dốc": 1918,
      "tăng": 1919,
      "tiến": 1920,
      "coi": 1921,
      "mùng": 1922,
      "bộ": 1923,
      "hôi": 1924,
      "##ụy": 1925,
      "bò": 1926,
      "khéo": 1927,
      "nâu": 1928,
      "xang": 1929,
      "ghét": 1930,
      "buộc": 1931,
      "giếng": 1932,
      "bộn": 1933,
      "dừa": 1934,
      "lăn": 1935,
      "tránh": 1936,
      "cam": 1937,
      "hậu": 1938,
      "tằm": 1939,
      "chúa": 1940,
      "can": 1941,
      "én": 1942,
      "##ịn": 1943,
      "thảo": 1944,
      "miệt": 1945,
      "oan": 1946,
      "kịp": 1947,
      "ngộ": 1948,
      "nhành": 1949,
      "liều": 1950,
      "sách": 1951,
      "áng": 1952,
      "bần": 1953,
      "trọng": 1954,
      "chọn": 1955,
      "hong": 1956,
      "miều": 1957,
      "vuông": 1958,
      "răng": 1959,
      "mành": 1960,
      "chuồn": 1961,
      "điện": 1962,
      "khoải": 1963,
      "lộng": 1964,
      "lau": 1965,
      "nén": 1966,
      "chấp": 1967,
      "phú": 1968,
      "muối": 1969,
      "vết": 1970,
      "phê": 1971,
      "nhật": 1972,
      "đoan": 1973,
      "dõi": 1974,
      "hứng": 1975,
      "##ợn": 1976,
      "rình": 1977,
      "yếu": 1978,
      "##ũng": 1979,
      "sẵn": 1980,
      "cổng": 1981,
      "đeo": 1982,
      "lững": 1983,
      "na": 1984,
      "trốn": 1985,
      "cắt": 1986,
      "##ụt": 1987,
      "đuổi": 1988,
      "tảo": 1989,
      "đốt": 1990,
      "truân": 1991,
      "ẩn": 1992,
      "đơm": 1993,
      "òa": 1994,
      "cội": 1995,
      "cưới": 1996,
      "mơn": 1997,
      "diệu": 1998,
      "gắng": 1999,
      "mọc": 2000,
      "chán": 2001,
      "vun": 2002,
      "đặt": 2003,
      "xóa": 2004,
      "rồng": 2005,
      "quyên": 2006,
      "dồn": 2007,
      "lợi": 2008,
      "tù": 2009,
      "nhằn": 2010,
      "lầu": 2011,
      "diêu": 2012,
      "ví": 2013,
      "cuộn": 2014,
      "khuyết": 2015,
      "điêu": 2016,
      "ngẫm": 2017,
      "miếng": 2018,
      "ninh": 2019,
      "luân": 2020,
      "chớm": 2021,
      "binh": 2022,
      "thử": 2023,
      "san": 2024,
      "vua": 2025,
      "tăm": 2026,
      "cõng": 2027,
      "khai": 2028,
      "lánh": 2029,
      "thiệt": 2030,
      "sạch": 2031,
      "tác": 2032,
      "đứt": 2033,
      "nức": 2034,
      "bó": 2035,
      "vướng": 2036,
      "quấn": 2037,
      "ngựa": 2038,
      "gìn": 2039,
      "rách": 2040,
      "vắt": 2041,
      "ham": 2042,
      "thảm": 2043,
      "bùng": 2044,
      "ghen": 2045,
      "vợi": 2046,
      "đày": 2047,
      "dẫn": 2048,
      "thai": 2049,
      "xếp": 2050,
      "dường": 2051,
      "dong": 2052,
      "lăng": 2053,
      "chồn": 2054,
      "giêng": 2055,
      "nhan": 2056,
      "đóng": 2057,
      "vốn": 2058,
      "rinh": 2059,
      "đớn": 2060,
      "dời": 2061,
      "rèm": 2062,
      "tôn": 2063,
      "tưng": 2064,
      "chờn": 2065,
      "gác": 2066,
      "hây": 2067,
      "lòai": 2068,
      "lửng": 2069,
      "chống": 2070,
      "món": 2071,
      "cấy": 2072,
      "chạnh": 2073,
      "bùn": 2074,
      "##ỉm": 2075,
      "##ọa": 2076,
      "thiền": 2077,
      "dọc": 2078,
      "##ưỡi": 2079,
      "đám": 2080,
      "chừ": 2081,
      "khuyên": 2082,
      "tắt": 2083,
      "dắt": 2084,
      "rầu": 2085,
      "đằng": 2086,
      "run": 2087,
      "bom": 2088,
      "tụ": 2089,
      "bếp": 2090,
      "buôn": 2091,
      "thú": 2092,
      "lênh": 2093,
      "rêu": 2094,
      "giỏi": 2095,
      "xua": 2096,
      "bồn": 2097,
      "vây": 2098,
      "nôn": 2099,
      "sữa": 2100,
      "sum": 2101,
      "còng": 2102,
      "xào": 2103,
      "##úm": 2104,
      "pháo": 2105,
      "dối": 2106,
      "đằm": 2107,
      "cua": 2108,
      "quyền": 2109,
      "##ẩu": 2110,
      "dỗi": 2111,
      "nguyền": 2112,
      "niên": 2113,
      "đạn": 2114,
      "trơ": 2115,
      "ríu": 2116,
      "kiên": 2117,
      "chắp": 2118,
      "nếp": 2119,
      "căng": 2120,
      "oán": 2121,
      "thênh": 2122,
      "bận": 2123,
      "gỡ": 2124,
      "dò": 2125,
      "cặp": 2126,
      "liệu": 2127,
      "nhảy": 2128,
      "ghép": 2129,
      "tạ": 2130,
      "chanh": 2131,
      "trót": 2132,
      "nhi": 2133,
      "nhụy": 2134,
      "khí": 2135,
      "quản": 2136,
      "đăng": 2137,
      "họp": 2138,
      "hé": 2139,
      "hút": 2140,
      "cương": 2141,
      "đô": 2142,
      "toan": 2143,
      "dưa": 2144,
      "lịch": 2145,
      "mệt": 2146,
      "ngài": 2147,
      "pháp": 2148,
      "giầu": 2149,
      "lâng": 2150,
      "tố": 2151,
      "ngâm": 2152,
      "rẽ": 2153,
      "lão": 2154,
      "dứt": 2155,
      "ngút": 2156,
      "liên": 2157,
      "##ẹo": 2158,
      "lâm": 2159,
      "bia": 2160,
      "cường": 2161,
      "ốm": 2162,
      "khe": 2163,
      "bơi": 2164,
      "trút": 2165,
      "mò": 2166,
      "##ướp": 2167,
      "##iễm": 2168,
      "mỉm": 2169,
      "rót": 2170,
      "rít": 2171,
      "chè": 2172,
      "nhấp": 2173,
      "gan": 2174,
      "tách": 2175,
      "mạng": 2176,
      "##ồm": 2177,
      "##ưởng": 2178,
      "khung": 2179,
      "nhiệm": 2180,
      "thiếp": 2181,
      "trèo": 2182,
      "tầng": 2183,
      "ngơi": 2184,
      "xơ": 2185,
      "phá": 2186,
      "phây": 2187,
      "lò": 2188,
      "uốn": 2189,
      "lụy": 2190,
      "cúi": 2191,
      "kệ": 2192,
      "thong": 2193,
      "chậm": 2194,
      "lái": 2195,
      "tia": 2196,
      "diết": 2197,
      "hại": 2198,
      "lùi": 2199,
      "chắt": 2200,
      "điệp": 2201,
      "bùa": 2202,
      "mồi": 2203,
      "nõ": 2204,
      "biến": 2205,
      "##ạp": 2206,
      "vút": 2207,
      "thắt": 2208,
      "bào": 2209,
      "hả": 2210,
      "rập": 2211,
      "khởi": 2212,
      "huế": 2213,
      "nõn": 2214,
      "phơ": 2215,
      "nà": 2216,
      "quỳnh": 2217,
      "dưỡng": 2218,
      "ghì": 2219,
      "mũ": 2220,
      "đênh": 2221,
      "gai": 2222,
      "vôi": 2223,
      "chát": 2224,
      "sàng": 2225,
      "giấy": 2226,
      "chông": 2227,
      "xoan": 2228,
      "lường": 2229,
      "sát": 2230,
      "cuốc": 2231,
      "bụng": 2232,
      "##ảm": 2233,
      "tượng": 2234,
      "phép": 2235,
      "ghềnh": 2236,
      "hưởng": 2237,
      "kiến": 2238,
      "ầu": 2239,
      "ngắt": 2240,
      "thói": 2241,
      "múa": 2242,
      "thùng": 2243,
      "giành": 2244,
      "máy": 2245,
      "nết": 2246,
      "vụng": 2247,
      "đao": 2248,
      "luồn": 2249,
      "lề": 2250,
      "ửng": 2251,
      "lui": 2252,
      "hời": 2253,
      "lở": 2254,
      "nhang": 2255,
      "vuốt": 2256,
      "kém": 2257,
      "xuyên": 2258,
      "võ": 2259,
      "khang": 2260,
      "cuội": 2261,
      "lữ": 2262,
      "sài": 2263,
      "cuồng": 2264,
      "##ẳn": 2265,
      "bôn": 2266,
      "sanh": 2267,
      "lấm": 2268,
      "đập": 2269,
      "ngôn": 2270,
      "mớ": 2271,
      "khinh": 2272,
      "chuối": 2273,
      "cân": 2274,
      "năng": 2275,
      "giời": 2276,
      "lẽo": 2277,
      "ác": 2278,
      "củ": 2279,
      "trộm": 2280,
      "mực": 2281,
      "súng": 2282,
      "luống": 2283,
      "hiểm": 2284,
      "đòi": 2285,
      "thống": 2286,
      "##ốm": 2287,
      "rước": 2288,
      "dỗ": 2289,
      "lừa": 2290,
      "##iếc": 2291,
      "nồi": 2292,
      "hèn": 2293,
      "viễn": 2294,
      "vận": 2295,
      "lim": 2296,
      "gồng": 2297,
      "vít": 2298,
      "loang": 2299,
      "cận": 2300,
      "đáp": 2301,
      "hân": 2302,
      "túi": 2303,
      "giàn": 2304,
      "căn": 2305,
      "mô": 2306,
      "đối": 2307,
      "dặn": 2308,
      "hộ": 2309,
      "nai": 2310,
      "tĩnh": 2311,
      "chang": 2312,
      "xuất": 2313,
      "uyên": 2314,
      "dê": 2315,
      "chinh": 2316,
      "triều": 2317,
      "ngạt": 2318,
      "dĩ": 2319,
      "mồng": 2320,
      "đọa": 2321,
      "ga": 2322,
      "tức": 2323,
      "chức": 2324,
      "trăn": 2325,
      "xum": 2326,
      "chương": 2327,
      "loại": 2328,
      "râm": 2329,
      "xạc": 2330,
      "nhập": 2331,
      "căm": 2332,
      "bon": 2333,
      "mẫu": 2334,
      "sư": 2335,
      "xá": 2336,
      "ngón": 2337,
      "nho": 2338,
      "gây": 2339,
      "##òe": 2340,
      "chứng": 2341,
      "nhè": 2342,
      "chòng": 2343,
      "chành": 2344,
      "kẻo": 2345,
      "kỉ": 2346,
      "tờ": 2347,
      "chùm": 2348,
      "biền": 2349,
      "bấc": 2350,
      "sưa": 2351,
      "ngợi": 2352,
      "##ẹt": 2353,
      "tam": 2354,
      "khua": 2355,
      "bội": 2356,
      "chứ": 2357,
      "ngùng": 2358,
      "bòng": 2359,
      "bám": 2360,
      "gõ": 2361,
      "giai": 2362,
      "tế": 2363,
      "vóc": 2364,
      "ngũ": 2365,
      "##ậc": 2366,
      "chớp": 2367,
      "cháo": 2368,
      "lô": 2369,
      "siêu": 2370,
      "vãng": 2371,
      "xông": 2372,
      "vĩnh": 2373,
      "nuốt": 2374,
      "bậc": 2375,
      "xã": 2376,
      "xấu": 2377,
      "##ẽo": 2378,
      "chế": 2379,
      "quẩn": 2380,
      "lạy": 2381,
      "khoan": 2382,
      "lừng": 2383,
      "óng": 2384,
      "thượng": 2385,
      "chửa": 2386,
      "bạt": 2387,
      "dăm": 2388,
      "lông": 2389,
      "ráng": 2390,
      "giáng": 2391,
      "nghệ": 2392,
      "búp": 2393,
      "nốt": 2394,
      "xoa": 2395,
      "bí": 2396,
      "chiêu": 2397,
      "sim": 2398,
      "oanh": 2399,
      "ngồng": 2400,
      "chùng": 2401,
      "ngực": 2402,
      "tui": 2403,
      "bẩy": 2404,
      "chề": 2405,
      "khóe": 2406,
      "bì": 2407,
      "rạ": 2408,
      "đấu": 2409,
      "rắc": 2410,
      "hăng": 2411,
      "chai": 2412,
      "đinh": 2413,
      "sung": 2414,
      "tú": 2415,
      "hẳn": 2416,
      "lộ": 2417,
      "lưa": 2418,
      "nền": 2419,
      "tòa": 2420,
      "giòn": 2421,
      "tán": 2422,
      "nầy": 2423,
      "tạc": 2424,
      "hoen": 2425,
      "yến": 2426,
      "giác": 2427,
      "phàng": 2428,
      "##ún": 2429,
      "thêu": 2430,
      "khôi": 2431,
      "phà": 2432,
      "ran": 2433,
      "tanh": 2434,
      "xé": 2435,
      "dã": 2436,
      "mâm": 2437,
      "thon": 2438,
      "nô": 2439,
      "lúng": 2440,
      "dục": 2441,
      "veo": 2442,
      "nhạn": 2443,
      "nhủ": 2444,
      "nhàn": 2445,
      "phước": 2446,
      "tướng": 2447,
      "nhô": 2448,
      "trêu": 2449,
      "lộn": 2450,
      "đâm": 2451,
      "tràng": 2452,
      "khuôn": 2453,
      "##ụp": 2454,
      "cám": 2455,
      "tôm": 2456,
      "khóm": 2457,
      "lắc": 2458,
      "rút": 2459,
      "xiết": 2460,
      "dầy": 2461,
      "gòn": 2462,
      "chục": 2463,
      "nhả": 2464,
      "bọt": 2465,
      "lưỡi": 2466,
      "diễm": 2467,
      "tùng": 2468,
      "ấu": 2469,
      "bén": 2470,
      "tục": 2471,
      "quảng": 2472,
      "loan": 2473,
      "kiể": 2474,
      "sửa": 2475,
      "sưởi": 2476,
      "trưởng": 2477,
      "nhện": 2478,
      "hòan": 2479,
      "vách": 2480,
      "phiên": 2481,
      "phen": 2482,
      "vén": 2483,
      "##òi": 2484,
      "bê": 2485,
      "lắt": 2486,
      "câm": 2487,
      "chiu": 2488,
      "xui": 2489,
      "quýt": 2490,
      "đạp": 2491,
      "nôi": 2492,
      "ngổn": 2493,
      "phũ": 2494,
      "sóc": 2495,
      "đỗ": 2496,
      "ngư": 2497,
      "niu": 2498,
      "gáy": 2499,
      "nhục": 2500,
      "bừa": 2501,
      "sỹ": 2502,
      "##ỡn": 2503,
      "trương": 2504,
      "len": 2505,
      "tịnh": 2506,
      "bung": 2507,
      "đảm": 2508,
      "liếc": 2509,
      "mướt": 2510,
      "gấm": 2511,
      "ngác": 2512,
      "trơn": 2513,
      "cậy": 2514,
      "sấm": 2515,
      "cấp": 2516,
      "quây": 2517,
      "mị": 2518,
      "gào": 2519,
      "lăm": 2520,
      "đăm": 2521,
      "ầm": 2522,
      "liệt": 2523,
      "vã": 2524,
      "thản": 2525,
      "lây": 2526,
      "nhánh": 2527,
      "nhịn": 2528,
      "táo": 2529,
      "tít": 2530,
      "cột": 2531,
      "gợn": 2532,
      "chói": 2533,
      "ngành": 2534,
      "triệu": 2535,
      "sắn": 2536,
      "thình": 2537,
      "khấn": 2538,
      "quãng": 2539,
      "hoá": 2540,
      "luật": 2541,
      "nạn": 2542,
      "##ợt": 2543,
      "lũy": 2544,
      "bạch": 2545,
      "##õa": 2546,
      "cúng": 2547,
      "hòn": 2548,
      "mọng": 2549,
      "rợp": 2550,
      "sờ": 2551,
      "tầu": 2552,
      "rửa": 2553,
      "sở": 2554,
      "luyện": 2555,
      "mộc": 2556,
      "diệt": 2557,
      "hiến": 2558,
      "mã": 2559,
      "réo": 2560,
      "ôn": 2561,
      "trì": 2562,
      "phục": 2563,
      "ghế": 2564,
      "cướp": 2565,
      "hầu": 2566,
      "lã": 2567,
      "mèo": 2568,
      "tộc": 2569,
      "vẩn": 2570,
      "lưới": 2571,
      "nỉ": 2572,
      "##ịm": 2573,
      "gãy": 2574,
      "chưng": 2575,
      "nhào": 2576,
      "##ểu": 2577,
      "##ươm": 2578,
      "lân": 2579,
      "thọ": 2580,
      "nhuốm": 2581,
      "bảng": 2582,
      "mì": 2583,
      "tênh": 2584,
      "khẩu": 2585,
      "thuộc": 2586,
      "lụt": 2587,
      "tát": 2588,
      "lịm": 2589,
      "mác": 2590,
      "rộ": 2591,
      "quặn": 2592,
      "râu": 2593,
      "thóc": 2594,
      "hạc": 2595,
      "lòa": 2596,
      "váy": 2597,
      "cắn": 2598,
      "phím": 2599,
      "sôi": 2600,
      "ngự": 2601,
      "bẻ": 2602,
      "chó": 2603,
      "nhói": 2604,
      "buồng": 2605,
      "##ẵng": 2606,
      "tý": 2607,
      "đố": 2608,
      "nhẫn": 2609,
      "xứng": 2610,
      "cộng": 2611,
      "mạch": 2612,
      "sản": 2613,
      "măng": 2614,
      "vớt": 2615,
      "thoắt": 2616,
      "lôi": 2617,
      "đuối": 2618,
      "lìm": 2619,
      "mạn": 2620,
      "hang": 2621,
      "lào": 2622,
      "xòe": 2623,
      "mũi": 2624,
      "lem": 2625,
      "quyến": 2626,
      "thưởng": 2627,
      "cởi": 2628,
      "mệnh": 2629,
      "vá": 2630,
      "xõa": 2631,
      "ích": 2632,
      "liếng": 2633,
      "me": 2634,
      "nổ": 2635,
      "tịch": 2636,
      "tháp": 2637,
      "khối": 2638,
      "gặt": 2639,
      "đặng": 2640,
      "ưa": 2641,
      "sào": 2642,
      "cập": 2643,
      "láng": 2644,
      "lực": 2645,
      "bong": 2646,
      "loạn": 2647,
      "tỉ": 2648,
      "hưu": 2649,
      "ni": 2650,
      "xướng": 2651,
      "chải": 2652,
      "hằn": 2653,
      "nghịch": 2654,
      "ướp": 2655,
      "thoang": 2656,
      "sắm": 2657,
      "giục": 2658,
      "hô": 2659,
      "chừa": 2660,
      "ngoảnh": 2661,
      "vênh": 2662,
      "xen": 2663,
      "quét": 2664,
      "luận": 2665,
      "bỏng": 2666,
      "chúm": 2667,
      "hiển": 2668,
      "ló": 2669,
      "kế": 2670,
      "vĩ": 2671,
      "thuê": 2672,
      "viếng": 2673,
      "nuối": 2674,
      "mạc": 2675,
      "cù": 2676,
      "hạn": 2677,
      "tồn": 2678,
      "thót": 2679,
      "hở": 2680,
      "đạt": 2681,
      "trị": 2682,
      "tật": 2683,
      "gừng": 2684,
      "buồm": 2685,
      "khuê": 2686,
      "sổ": 2687,
      "thào": 2688,
      "khốn": 2689,
      "hoe": 2690,
      "ung": 2691,
      "##ặm": 2692,
      "nhăn": 2693,
      "toả": 2694,
      "diễn": 2695,
      "lất": 2696,
      "eo": 2697,
      "gã": 2698,
      "rải": 2699,
      "xám": 2700,
      "thốt": 2701,
      "loi": 2702,
      "dông": 2703,
      "nhiễu": 2704,
      "sờn": 2705,
      "cắm": 2706,
      "đồn": 2707,
      "nguyễn": 2708,
      "dẻo": 2709,
      "rạo": 2710,
      "nhầm": 2711,
      "chấm": 2712,
      "trụ": 2713,
      "nhài": 2714,
      "tròng": 2715,
      "nhắm": 2716,
      "phờ": 2717,
      "đệ": 2718,
      "##iếm": 2719,
      "lười": 2720,
      "quạt": 2721,
      "hàm": 2722,
      "văng": 2723,
      "chốc": 2724,
      "mạ": 2725,
      "kê": 2726,
      "chím": 2727,
      "vực": 2728,
      "xung": 2729,
      "nhiệt": 2730,
      "lẫy": 2731,
      "tành": 2732,
      "tưới": 2733,
      "xẻ": 2734,
      "đãng": 2735,
      "vác": 2736,
      "ngan": 2737,
      "gập": 2738,
      "mõ": 2739,
      "mương": 2740,
      "vo": 2741,
      "vạc": 2742,
      "dằng": 2743,
      "hưng": 2744,
      "xả": 2745,
      "gù": 2746,
      "nhơ": 2747,
      "quỷ": 2748,
      "huynh": 2749,
      "môn": 2750,
      "tào": 2751,
      "đế": 2752,
      "thập": 2753,
      "rọi": 2754,
      "thịnh": 2755,
      "ngươi": 2756,
      "dế": 2757,
      "lận": 2758,
      "ùa": 2759,
      "ẩm": 2760,
      "nhở": 2761,
      "khiêm": 2762,
      "cút": 2763,
      "lược": 2764,
      "đung": 2765,
      "phảng": 2766,
      "cử": 2767,
      "dũng": 2768,
      "nép": 2769,
      "trắc": 2770,
      "tấc": 2771,
      "khoác": 2772,
      "kèm": 2773,
      "mốt": 2774,
      "sót": 2775,
      "chóng": 2776,
      "thước": 2777,
      "nọ": 2778,
      "von": 2779,
      "chong": 2780,
      "ngước": 2781,
      "nhậu": 2782,
      "táp": 2783,
      "vồng": 2784,
      "liệng": 2785,
      "tông": 2786,
      "tấp": 2787,
      "giỗ": 2788,
      "giỡn": 2789,
      "gội": 2790,
      "le": 2791,
      "phới": 2792,
      "##ựng": 2793,
      "cốt": 2794,
      "gấp": 2795,
      "ốc": 2796,
      "thày": 2797,
      "thiêu": 2798,
      "nguôi": 2799,
      "đùng": 2800,
      "ngấm": 2801,
      "hổ": 2802,
      "##ía": 2803,
      "##iềng": 2804,
      "mãn": 2805,
      "rặng": 2806,
      "huyên": 2807,
      "lật": 2808,
      "sá": 2809,
      "ngục": 2810,
      "khế": 2811,
      "lạt": 2812,
      "hối": 2813,
      "đòn": 2814,
      "đắn": 2815,
      "dữ": 2816,
      "rao": 2817,
      "vừng": 2818,
      "vải": 2819,
      "lệch": 2820,
      "cấm": 2821,
      "dậu": 2822,
      "vệ": 2823,
      "rầm": 2824,
      "tiệc": 2825,
      "lẳng": 2826,
      "ắp": 2827,
      "nhộn": 2828,
      "ải": 2829,
      "tiểu": 2830,
      "lợn": 2831,
      "vong": 2832,
      "tro": 2833,
      "bật": 2834,
      "mĩ": 2835,
      "lọt": 2836,
      "tiện": 2837,
      "đận": 2838,
      "nhã": 2839,
      "nhãn": 2840,
      "dề": 2841,
      "hê": 2842,
      "cheo": 2843,
      "kỹ": 2844,
      "ro": 2845,
      "phập": 2846,
      "phùn": 2847,
      "kiểu": 2848,
      "ròng": 2849,
      "tra": 2850,
      "loa": 2851,
      "bưng": 2852,
      "nến": 2853,
      "đống": 2854,
      "ồn": 2855,
      "phồn": 2856,
      "loanh": 2857,
      "đuôi": 2858,
      "mịn": 2859,
      "ruổi": 2860,
      "dai": 2861,
      "trạng": 2862,
      "bện": 2863,
      "vèo": 2864,
      "chơ": 2865,
      "ngấn": 2866,
      "cỗ": 2867,
      "gu": 2868,
      "nảy": 2869,
      "rả": 2870,
      "sùi": 2871,
      "vịt": 2872,
      "chuyền": 2873,
      "hiệu": 2874,
      "kiệt": 2875,
      "rành": 2876,
      "chà": 2877,
      "ngầm": 2878,
      "ngửa": 2879,
      "mẩn": 2880,
      "đòng": 2881,
      "chặng": 2882,
      "quàng": 2883,
      "phồng": 2884,
      "miễn": 2885,
      "nùng": 2886,
      "giảng": 2887,
      "bọn": 2888,
      "quai": 2889,
      "thoi": 2890,
      "chắn": 2891,
      "phóng": 2892,
      "ghẹo": 2893,
      "trừ": 2894,
      "dịp": 2895,
      "mít": 2896,
      "rèn": 2897,
      "tụng": 2898,
      "ngao": 2899,
      "vấp": 2900,
      "bôi": 2901,
      "bực": 2902,
      "rang": 2903,
      "sỏi": 2904,
      "dội": 2905,
      "kén": 2906,
      "lình": 2907,
      "giản": 2908,
      "cốm": 2909,
      "mận": 2910,
      "mồm": 2911,
      "bầm": 2912,
      "dọn": 2913,
      "nhai": 2914,
      "nhựa": 2915,
      "giãi": 2916,
      "thét": 2917,
      "quơ": 2918,
      "gươm": 2919,
      "phách": 2920,
      "cằn": 2921,
      "lượng": 2922,
      "hoặc": 2923,
      "nhen": 2924,
      "líu": 2925,
      "oai": 2926,
      "bậu": 2927,
      "vãn": 2928,
      "giết": 2929,
      "lúm": 2930,
      "mường": 2931,
      "nập": 2932,
      "nấm": 2933,
      "ớt": 2934,
      "kẹt": 2935,
      "khâu": 2936,
      "bọc": 2937,
      "nần": 2938,
      "sững": 2939,
      "điền": 2940,
      "nhú": 2941,
      "nghiêm": 2942,
      "then": 2943,
      "trân": 2944,
      "giậu": 2945,
      "cưỡi": 2946,
      "##ụm": 2947,
      "cối": 2948,
      "án": 2949,
      "ngữ": 2950,
      "bập": 2951,
      "keo": 2952,
      "tấu": 2953,
      "van": 2954,
      "tuyền": 2955,
      "phụng": 2956,
      "bá": 2957,
      "gạt": 2958,
      "đẻ": 2959,
      "chuột": 2960,
      "mục": 2961,
      "lách": 2962,
      "gật": 2963,
      "thúc": 2964,
      "bổ": 2965,
      "cưng": 2966,
      "cốc": 2967,
      "đúc": 2968,
      "đờn": 2969,
      "thuỷ": 2970,
      "trưng": 2971,
      "thùy": 2972,
      "kẽo": 2973,
      "lượt": 2974,
      "mo": 2975,
      "chầu": 2976,
      "nhóm": 2977,
      "tăn": 2978,
      "thục": 2979,
      "chót": 2980,
      "giở": 2981,
      "lóng": 2982,
      "xơi": 2983,
      "đạm": 2984,
      "khoa": 2985,
      "chuỗi": 2986,
      "ván": 2987,
      "thoa": 2988,
      "chui": 2989,
      "nếm": 2990,
      "mởn": 2991,
      "lều": 2992,
      "bõ": 2993,
      "vung": 2994,
      "##ùn": 2995,
      "sườn": 2996,
      "đần": 2997,
      "trộn": 2998,
      "nhốt": 2999,
      "nghiệt": 3000,
      "vụt": 3001,
      "dè": 3002,
      "têm": 3003,
      "vó": 3004,
      "khoảnh": 3005,
      "chuẩn": 3006,
      "dựa": 3007,
      "kì": 3008,
      "thổ": 3009,
      "khàng": 3010,
      "rờn": 3011,
      "chầm": 3012,
      "khùng": 3013,
      "quí": 3014,
      "va": 3015,
      "đỗi": 3016,
      "##ũa": 3017,
      "chuốc": 3018,
      "huề": 3019,
      "mướp": 3020,
      "rễ": 3021,
      "lệnh": 3022,
      "ép": 3023,
      "bón": 3024,
      "day": 3025,
      "lọc": 3026,
      "sụt": 3027,
      "tấn": 3028,
      "ắt": 3029,
      "ổi": 3030,
      "##ỉa": 3031,
      "nhỡ": 3032,
      "dim": 3033,
      "bủa": 3034,
      "lựa": 3035,
      "đè": 3036,
      "đìa": 3037,
      "mỡ": 3038,
      "xét": 3039,
      "ưng": 3040,
      "##ấng": 3041,
      "duy": 3042,
      "chửi": 3043,
      "trọc": 3044,
      "lầy": 3045,
      "rủi": 3046,
      "chém": 3047,
      "hửng": 3048,
      "nẩy": 3049,
      "vỏ": 3050,
      "xích": 3051,
      "khỏa": 3052,
      "vụn": 3053,
      "chếch": 3054,
      "mỏ": 3055,
      "rô": 3056,
      "##ẩng": 3057,
      "thợ": 3058,
      "chép": 3059,
      "chụp": 3060,
      "chiêng": 3061,
      "huyết": 3062,
      "kênh": 3063,
      "tép": 3064,
      "##ựu": 3065,
      "trỗi": 3066,
      "đãi": 3067,
      "thoại": 3068,
      "teo": 3069,
      "thui": 3070,
      "dì": 3071,
      "mần": 3072,
      "rắt": 3073,
      "càn": 3074,
      "gầm": 3075,
      "chày": 3076,
      "lảng": 3077,
      "trâm": 3078,
      "bối": 3079,
      "diện": 3080,
      "sứ": 3081,
      "tàng": 3082,
      "vâng": 3083,
      "giề": 3084,
      "ngói": 3085,
      "hi": 3086,
      "nghiên": 3087,
      "hun": 3088,
      "chò": 3089,
      "cầy": 3090,
      "oi": 3091,
      "rể": 3092,
      "thỉnh": 3093,
      "chài": 3094,
      "miết": 3095,
      "đặc": 3096,
      "vòm": 3097,
      "ngưỡng": 3098,
      "bươn": 3099,
      "rày": 3100,
      "mía": 3101,
      "oằn": 3102,
      "răn": 3103,
      "cơi": 3104,
      "dồi": 3105,
      "dinh": 3106,
      "nấc": 3107,
      "tắc": 3108,
      "đĩ": 3109,
      "ngẩng": 3110,
      "huệ": 3111,
      "nướng": 3112,
      "xiên": 3113,
      "cứng": 3114,
      "phàm": 3115,
      "vái": 3116,
      "nhâm": 3117,
      "dính": 3118,
      "gỗ": 3119,
      "lon": 3120,
      "nè": 3121,
      "tuyến": 3122,
      "viện": 3123,
      "chật": 3124,
      "trú": 3125,
      "giáp": 3126,
      "lén": 3127,
      "rỗi": 3128,
      "xi": 3129,
      "đáo": 3130,
      "##ín": 3131,
      "##ỏa": 3132,
      "nghê": 3133,
      "ganh": 3134,
      "hụt": 3135,
      "##ýt": 3136,
      "chuốt": 3137,
      "mụ": 3138,
      "mắm": 3139,
      "nòi": 3140,
      "tớ": 3141,
      "cửu": 3142,
      "##ịu": 3143,
      "giềng": 3144,
      "nhừ": 3145,
      "khứ": 3146,
      "khoăn": 3147,
      "giám": 3148,
      "quái": 3149,
      "rượi": 3150,
      "toán": 3151,
      "chường": 3152,
      "nhức": 3153,
      "mân": 3154,
      "ri": 3155,
      "vở": 3156,
      "phở": 3157,
      "sửu": 3158,
      "băn": 3159,
      "rảnh": 3160,
      "xâm": 3161,
      "thúng": 3162,
      "chậu": 3163,
      "bân": 3164,
      "hừng": 3165,
      "đựng": 3166,
      "trành": 3167,
      "dẹp": 3168,
      "ngầu": 3169,
      "nhởn": 3170,
      "nín": 3171,
      "khư": 3172,
      "suông": 3173,
      "dửng": 3174,
      "hổng": 3175,
      "tạnh": 3176,
      "tem": 3177,
      "điếu": 3178,
      "phẩm": 3179,
      "ngoa": 3180,
      "han": 3181,
      "huyện": 3182,
      "lư": 3183,
      "véo": 3184,
      "tùy": 3185,
      "gọn": 3186,
      "hán": 3187,
      "kẽ": 3188,
      "nung": 3189,
      "tốn": 3190,
      "khiết": 3191,
      "khóa": 3192,
      "nuột": 3193,
      "cọ": 3194,
      "côn": 3195,
      "vứt": 3196,
      "ngưng": 3197,
      "thỏm": 3198,
      "giảm": 3199,
      "vũng": 3200,
      "dép": 3201,
      "liêng": 3202,
      "tòng": 3203,
      "xà": 3204,
      "xử": 3205,
      "##ớp": 3206,
      "chay": 3207,
      "trụi": 3208,
      "giơ": 3209,
      "cậu": 3210,
      "rác": 3211,
      "nhương": 3212,
      "quất": 3213,
      "nghé": 3214,
      "lũng": 3215,
      "bái": 3216,
      "dà": 3217,
      "dật": 3218,
      "gò": 3219,
      "lõng": 3220,
      "ếch": 3221,
      "thỉ": 3222,
      "nhiễm": 3223,
      "dặt": 3224,
      "thạch": 3225,
      "dâm": 3226,
      "gục": 3227,
      "hiệp": 3228,
      "rên": 3229,
      "nheo": 3230,
      "vịn": 3231,
      "quẽ": 3232,
      "tín": 3233,
      "cục": 3234,
      "hệ": 3235,
      "lì": 3236,
      "tỷ": 3237,
      "thung": 3238,
      "phô": 3239,
      "lót": 3240,
      "miếu": 3241,
      "rền": 3242,
      "thây": 3243,
      "chì": 3244,
      "bờm": 3245,
      "ném": 3246,
      "nồm": 3247,
      "vê": 3248,
      "voi": 3249,
      "xòa": 3250,
      "tráng": 3251,
      "phì": 3252,
      "muội": 3253,
      "thủi": 3254,
      "cư": 3255,
      "gạch": 3256,
      "hắn": 3257,
      "hẩm": 3258,
      "lụi": 3259,
      "khẩn": 3260,
      "cuồn": 3261,
      "đóm": 3262,
      "đĩa": 3263,
      "bách": 3264,
      "bốc": 3265,
      "củi": 3266,
      "dềnh": 3267,
      "hung": 3268,
      "nứt": 3269,
      "ứng": 3270,
      "loay": 3271,
      "hú": 3272,
      "kèn": 3273,
      "lấn": 3274,
      "đùm": 3275,
      "phạm": 3276,
      "bo": 3277,
      "móc": 3278,
      "sập": 3279,
      "dạng": 3280,
      "hố": 3281,
      "răm": 3282,
      "siết": 3283,
      "the": 3284,
      "truyện": 3285,
      "hoay": 3286,
      "hẹp": 3287,
      "mắng": 3288,
      "mắn": 3289,
      "rẻ": 3290,
      "ngượng": 3291,
      "trãi": 3292,
      "tía": 3293,
      "ghim": 3294,
      "bắn": 3295,
      "hớn": 3296,
      "nong": 3297,
      "ty": 3298,
      "nhị": 3299,
      "rát": 3300,
      "rích": 3301,
      "thò": 3302,
      "phanh": 3303,
      "khoái": 3304,
      "díu": 3305,
      "gắt": 3306,
      "nấy": 3307,
      "tuyên": 3308,
      "tánh": 3309,
      "xì": 3310,
      "đáu": 3311,
      "đấng": 3312,
      "chặn": 3313,
      "trằn": 3314,
      "quắt": 3315,
      "sét": 3316,
      "thẻ": 3317,
      "khích": 3318,
      "hoạn": 3319,
      "cắp": 3320,
      "đũa": 3321,
      "##ủng": 3322,
      "phế": 3323,
      "náo": 3324,
      "trúng": 3325,
      "giò": 3326,
      "thưở": 3327,
      "bụt": 3328,
      "gang": 3329,
      "óc": 3330,
      "trữ": 3331,
      "quế": 3332,
      "cọng": 3333,
      "gặm": 3334,
      "mốc": 3335,
      "ống": 3336,
      "ngông": 3337,
      "nghiệm": 3338,
      "lác": 3339,
      "hãi": 3340,
      "mẻ": 3341,
      "rỉ": 3342,
      "túng": 3343,
      "thau": 3344,
      "viền": 3345,
      "trán": 3346,
      "nhem": 3347,
      "săn": 3348,
      "chữa": 3349,
      "gắm": 3350,
      "hòng": 3351,
      "sải": 3352,
      "vệt": 3353,
      "muống": 3354,
      "bắp": 3355,
      "niết": 3356,
      "ngán": 3357,
      "giày": 3358,
      "phái": 3359,
      "còi": 3360,
      "thúy": 3361,
      "hóng": 3362,
      "thụ": 3363,
      "khánh": 3364,
      "phau": 3365,
      "hoải": 3366,
      "lát": 3367,
      "ứa": 3368,
      "giòng": 3369,
      "thiu": 3370,
      "rà": 3371,
      "vượng": 3372,
      "khan": 3373,
      "mại": 3374,
      "ấn": 3375,
      "chỉnh": 3376,
      "dẫm": 3377,
      "hên": 3378,
      "hởi": 3379,
      "ton": 3380,
      "nhấm": 3381,
      "roi": 3382,
      "sốt": 3383,
      "trẩy": 3384,
      "giam": 3385,
      "choáng": 3386,
      "luộc": 3387,
      "bấm": 3388,
      "gậy": 3389,
      "##ẫng": 3390,
      "trợ": 3391,
      "quện": 3392,
      "hòanh": 3393,
      "béo": 3394,
      "hâm": 3395,
      "hiếm": 3396,
      "rẩy": 3397,
      "tề": 3398,
      "ngái": 3399,
      "guốc": 3400,
      "gay": 3401,
      "pa": 3402,
      "tủ": 3403,
      "quạ": 3404,
      "hoạ": 3405,
      "cản": 3406,
      "bóc": 3407,
      "dờ": 3408,
      "hầm": 3409,
      "năn": 3410,
      "nũng": 3411,
      "vằng": 3412,
      "đẳng": 3413,
      "khảm": 3414,
      "thoải": 3415,
      "bạo": 3416,
      "kem": 3417,
      "triển": 3418,
      "bóp": 3419,
      "nực": 3420,
      "sế": 3421,
      "siêng": 3422,
      "ám": 3423,
      "chọc": 3424,
      "đuốc": 3425,
      "lãnh": 3426,
      "múc": 3427,
      "rứt": 3428,
      "tiềm": 3429,
      "ủi": 3430,
      "ngưu": 3431,
      "trói": 3432,
      "giùm": 3433,
      "phản": 3434,
      "dùm": 3435,
      "biếu": 3436,
      "dụng": 3437,
      "vãi": 3438,
      "đay": 3439,
      "địch": 3440,
      "trượt": 3441,
      "tuệ": 3442,
      "cẩm": 3443,
      "gượng": 3444,
      "my": 3445,
      "sà": 3446,
      "sành": 3447,
      "tỳ": 3448,
      "đai": 3449,
      "thách": 3450,
      "trực": 3451,
      "khá": 3452,
      "##iểu": 3453,
      "loáng": 3454,
      "cợt": 3455,
      "dãy": 3456,
      "dột": 3457,
      "lỗ": 3458,
      "lóc": 3459,
      "ranh": 3460,
      "nhì": 3461,
      "phớt": 3462,
      "bìm": 3463,
      "bại": 3464,
      "biêng": 3465,
      "cỗi": 3466,
      "kè": 3467,
      "lĩnh": 3468,
      "chới": 3469,
      "châm": 3470,
      "quăng": 3471,
      "xoá": 3472,
      "xoáy": 3473,
      "bới": 3474,
      "cẩn": 3475,
      "noi": 3476,
      "đụng": 3477,
      "thẫm": 3478,
      "nhũng": 3479,
      "nguội": 3480,
      "tửu": 3481,
      "bặt": 3482,
      "dụ": 3483,
      "hơ": 3484,
      "mỵ": 3485,
      "sừng": 3486,
      "xình": 3487,
      "trọ": 3488,
      "vía": 3489,
      "dan": 3490,
      "háo": 3491,
      "nêu": 3492,
      "te": 3493,
      "xưng": 3494,
      "thuần": 3495,
      "chiếm": 3496,
      "cún": 3497,
      "vông": 3498,
      "chực": 3499,
      "khì": 3500,
      "xuê": 3501,
      "hỏa": 3502,
      "khoẻ": 3503,
      "dăng": 3504,
      "hỏng": 3505,
      "vặc": 3506,
      "xới": 3507,
      "chòang": 3508,
      "uổng": 3509,
      "đắt": 3510,
      "##ểnh": 3511,
      "biếng": 3512,
      "phim": 3513,
      "gạn": 3514,
      "nhổ": 3515,
      "cóc": 3516,
      "bã": 3517,
      "lẻo": 3518,
      "rắn": 3519,
      "hít": 3520,
      "nịu": 3521,
      "ập": 3522,
      "chướng": 3523,
      "ngẫn": 3524,
      "trứng": 3525,
      "trùm": 3526,
      "thoả": 3527,
      "cống": 3528,
      "cựa": 3529,
      "lẩn": 3530,
      "rứa": 3531,
      "vịnh": 3532,
      "nhấn": 3533,
      "cáo": 3534,
      "ha": 3535,
      "hám": 3536,
      "té": 3537,
      "vè": 3538,
      "đờ": 3539,
      "đích": 3540,
      "chình": 3541,
      "khiên": 3542,
      "phiến": 3543,
      "cỏn": 3544,
      "đệm": 3545,
      "sếp": 3546,
      "uất": 3547,
      "út": 3548,
      "đùi": 3549,
      "khất": 3550,
      "phèo": 3551,
      "lạng": 3552,
      "hoạch": 3553,
      "ghe": 3554,
      "tựu": 3555,
      "toang": 3556,
      "hẫng": 3557,
      "kìm": 3558,
      "nắn": 3559,
      "rịn": 3560,
      "xập": 3561,
      "đác": 3562,
      "ngẫu": 3563,
      "nhèm": 3564,
      "suôn": 3565,
      "bích": 3566,
      "cú": 3567,
      "hỷ": 3568,
      "lãi": 3569,
      "tiều": 3570,
      "đìu": 3571,
      "chối": 3572,
      "kha": 3573,
      "phán": 3574,
      "chuộc": 3575,
      "toại": 3576,
      "nua": 3577,
      "kẹo": 3578,
      "lọ": 3579,
      "lượm": 3580,
      "mào": 3581,
      "nhún": 3582,
      "khanh": 3583,
      "khoé": 3584,
      "mon": 3585,
      "xách": 3586,
      "đợt": 3587,
      "##òm": 3588,
      "thô": 3589,
      "khèn": 3590,
      "phẳng": 3591,
      "luồng": 3592,
      "tuyển": 3593,
      "bèn": 3594,
      "niêu": 3595,
      "rỗng": 3596,
      "##õm": 3597,
      "giặt": 3598,
      "cán": 3599,
      "đoá": 3600,
      "vid": 3601,
      "búa": 3602,
      "cỏi": 3603,
      "kiệu": 3604,
      "rẫy": 3605,
      "sàn": 3606,
      "đe": 3607,
      "trại": 3608,
      "phạt": 3609,
      "bẽn": 3610,
      "bang": 3611,
      "gân": 3612,
      "gảy": 3613,
      "hốt": 3614,
      "sình": 3615,
      "sấu": 3616,
      "trấn": 3617,
      "khăng": 3618,
      "phe": 3619,
      "tuột": 3620,
      "đoán": 3621,
      "cưu": 3622,
      "ray": 3623,
      "thí": 3624,
      "trau": 3625,
      "xuồng": 3626,
      "ghìm": 3627,
      "lẽn": 3628,
      "huyễn": 3629,
      "méo": 3630,
      "rạch": 3631,
      "sần": 3632,
      "chổi": 3633,
      "chìa": 3634,
      "khỉ": 3635,
      "ngoai": 3636,
      "tổn": 3637,
      "mập": 3638,
      "rai": 3639,
      "vét": 3640,
      "thính": 3641,
      "nhá": 3642,
      "ghiền": 3643,
      "bành": 3644,
      "hã": 3645,
      "mẫn": 3646,
      "thiệp": 3647,
      "bịn": 3648,
      "chàm": 3649,
      "cưa": 3650,
      "lừ": 3651,
      "sồng": 3652,
      "toi": 3653,
      "xối": 3654,
      "ối": 3655,
      "quận": 3656,
      "dờn": 3657,
      "sầm": 3658,
      "túc": 3659,
      "vẹt": 3660,
      "đẩu": 3661,
      "##ũi": 3662,
      "trù": 3663,
      "khoang": 3664,
      "đom": 3665,
      "gẫy": 3666,
      "nẻ": 3667,
      "nỏ": 3668,
      "núm": 3669,
      "rầy": 3670,
      "vù": 3671,
      "vạch": 3672,
      "thùa": 3673,
      "giỏ": 3674,
      "chếnh": 3675,
      "vắn": 3676,
      "xài": 3677,
      "chụm": 3678,
      "ngãi": 3679,
      "ngụp": 3680,
      "phác": 3681,
      "nghiền": 3682,
      "ướm": 3683,
      "lẹ": 3684,
      "mách": 3685,
      "tốc": 3686,
      "úp": 3687,
      "đẫy": 3688,
      "##ếch": 3689,
      "nhũ": 3690,
      "lài": 3691,
      "nghị": 3692,
      "thảng": 3693,
      "kiểm": 3694,
      "bai": 3695,
      "bẩn": 3696,
      "biểu": 3697,
      "dàn": 3698,
      "hức": 3699,
      "chuồng": 3700,
      "còm": 3701,
      "bẫy": 3702,
      "xảy": 3703,
      "đốm": 3704,
      "ỡm": 3705,
      "nhầu": 3706,
      "phỉ": 3707,
      "chạp": 3708,
      "hỉ": 3709,
      "móng": 3710,
      "nem": 3711,
      "sạn": 3712,
      "vin": 3713,
      "xắn": 3714,
      "đột": 3715,
      "chư": 3716,
      "be": 3717,
      "hảo": 3718,
      "lựu": 3719,
      "rùng": 3720,
      "rìa": 3721,
      "tắp": 3722,
      "nghì": 3723,
      "bẩm": 3724,
      "mảng": 3725,
      "tồi": 3726,
      "thớt": 3727,
      "trạm": 3728,
      "khiếp": 3729,
      "chích": 3730,
      "bịt": 3731,
      "dơ": 3732,
      "lói": 3733,
      "lỏng": 3734,
      "vạ": 3735,
      "đảnh": 3736,
      "##ẻn": 3737,
      "thép": 3738,
      "nhỉ": 3739,
      "giũ": 3740,
      "khải": 3741,
      "cuống": 3742,
      "muốt": 3743,
      "xiêm": 3744,
      "dậm": 3745,
      "hét": 3746,
      "lảnh": 3747,
      "rậm": 3748,
      "đả": 3749,
      "trớ": 3750,
      "##ướn": 3751,
      "khuây": 3752,
      "dấn": 3753,
      "rùa": 3754,
      "rảo": 3755,
      "tong": 3756,
      "tọa": 3757,
      "vẻo": 3758,
      "nhằm": 3759,
      "bô": 3760,
      "gột": 3761,
      "##ợm": 3762,
      "chần": 3763,
      "chánh": 3764,
      "nhát": 3765,
      "phổ": 3766,
      "nhuần": 3767,
      "cai": 3768,
      "mèm": 3769,
      "oa": 3770,
      "sũng": 3771,
      "tước": 3772,
      "vỉa": 3773,
      "xó": 3774,
      "##ộp": 3775,
      "thuyên": 3776,
      "chầy": 3777,
      "chốt": 3778,
      "nghêu": 3779,
      "nghinh": 3780,
      "lòe": 3781,
      "nhoẻn": 3782,
      "cãi": 3783,
      "lèo": 3784,
      "xâu": 3785,
      "đắc": 3786,
      "đậy": 3787,
      "chững": 3788,
      "phun": 3789,
      "uyển": 3790,
      "trập": 3791,
      "nhơn": 3792,
      "nhằng": 3793,
      "phao": 3794,
      "trẻo": 3795,
      "điển": 3796,
      "bống": 3797,
      "bún": 3798,
      "cỡ": 3799,
      "dỡ": 3800,
      "dát": 3801,
      "gày": 3802,
      "há": 3803,
      "hủ": 3804,
      "lốc": 3805,
      "nịnh": 3806,
      "sòng": 3807,
      "éo": 3808,
      "nghiện": 3809,
      "muỗi": 3810,
      "tày": 3811,
      "xay": 3812,
      "giương": 3813,
      "giãn": 3814,
      "##ườm": 3815,
      "sớt": 3816,
      "vọt": 3817,
      "chơn": 3818,
      "trồi": 3819,
      "nhòe": 3820,
      "kháng": 3821,
      "##uyết": 3822,
      "cóng": 3823,
      "đỏng": 3824,
      "xoe": 3825,
      "náu": 3826,
      "rê": 3827,
      "vại": 3828,
      "viển": 3829,
      "xéo": 3830,
      "đẵng": 3831,
      "khẳng": 3832,
      "chum": 3833,
      "khuấy": 3834,
      "soạn": 3835,
      "hấp": 3836,
      "lổ": 3837,
      "nấp": 3838,
      "tản": 3839,
      "##ỉn": 3840,
      "nháy": 3841,
      "quì": 3842,
      "bú": 3843,
      "hão": 3844,
      "róc": 3845,
      "tạt": 3846,
      "tẩy": 3847,
      "diêm": 3848,
      "bói": 3849,
      "báu": 3850,
      "bênh": 3851,
      "cấu": 3852,
      "gành": 3853,
      "hông": 3854,
      "lột": 3855,
      "mép": 3856,
      "độn": 3857,
      "trễ": 3858,
      "nhót": 3859,
      "khạo": 3860,
      "ngoái": 3861,
      "hộp": 3862,
      "cựu": 3863,
      "gùi": 3864,
      "rạt": 3865,
      "ẵm": 3866,
      "chọi": 3867,
      "nhoi": 3868,
      "nghênh": 3869,
      "ngoạn": 3870,
      "lũi": 3871,
      "lọn": 3872,
      "liềm": 3873,
      "lợp": 3874,
      "liếp": 3875,
      "mõi": 3876,
      "nể": 3877,
      "ổn": 3878,
      "nhồi": 3879,
      "lia": 3880,
      "au": 3881,
      "dạn": 3882,
      "vẹo": 3883,
      "xê": 3884,
      "tháo": 3885,
      "nhí": 3886,
      "nhòm": 3887,
      "tua": 3888,
      "doanh": 3889,
      "dể": 3890,
      "gũi": 3891,
      "núp": 3892,
      "vặt": 3893,
      "xửa": 3894,
      "đơ": 3895,
      "khom": 3896,
      "nài": 3897,
      "vạnh": 3898,
      "điềm": 3899,
      "chổ": 3900,
      "chon": 3901,
      "nhời": 3902,
      "chiên": 3903,
      "đàm": 3904,
      "tổng": 3905,
      "bòn": 3906,
      "cằm": 3907,
      "lủi": 3908,
      "mé": 3909,
      "meo": 3910,
      "tâu": 3911,
      "tặc": 3912,
      "xíu": 3913,
      "đừ": 3914,
      "thuyết": 3915,
      "chùn": 3916,
      "khà": 3917,
      "quít": 3918,
      "đòai": 3919,
      "bẹ": 3920,
      "cọc": 3921,
      "lươn": 3922,
      "rốn": 3923,
      "sẩy": 3924,
      "vồ": 3925,
      "thối": 3926,
      "mòi": 3927,
      "cồng": 3928,
      "cặm": 3929,
      "hăm": 3930,
      "rức": 3931,
      "ùn": 3932,
      "chẵng": 3933,
      "ngớ": 3934,
      "ngấp": 3935,
      "nhón": 3936,
      "khám": 3937,
      "quầng": 3938,
      "phào": 3939,
      "nghiến": 3940,
      "chít": 3941,
      "búc": 3942,
      "hí": 3943,
      "lét": 3944,
      "nớ": 3945,
      "nệ": 3946,
      "nêm": 3947,
      "tã": 3948,
      "tồng": 3949,
      "chã": 3950,
      "truy": 3951,
      "nháo": 3952,
      "khốc": 3953,
      "guộc": 3954,
      "nom": 3955,
      "víu": 3956,
      "đon": 3957,
      "thững": 3958,
      "chẻ": 3959,
      "phàn": 3960,
      "ngủi": 3961,
      "mổ": 3962,
      "nẵng": 3963,
      "rãi": 3964,
      "sảng": 3965,
      "tống": 3966,
      "##ỳnh": 3967,
      "trũng": 3968,
      "nhẽo": 3969,
      "queo": 3970,
      "quách": 3971,
      "xuýt": 3972,
      "tuấn": 3973,
      "cứa": 3974,
      "phủi": 3975,
      "tủm": 3976,
      "bứt": 3977,
      "cắc": 3978,
      "gọt": 3979,
      "sẫm": 3980,
      "sính": 3981,
      "##ỷu": 3982,
      "thận": 3983,
      "chằng": 3984,
      "ngai": 3985,
      "giằng": 3986,
      "quậy": 3987,
      "quẩy": 3988,
      "cảng": 3989,
      "khuỷu": 3990,
      "cụi": 3991,
      "mẽ": 3992,
      "nóc": 3993,
      "sấp": 3994,
      "vặn": 3995,
      "xênh": 3996,
      "đọt": 3997,
      "thệ": 3998,
      "nhẩn": 3999,
      "thảy": 4000,
      "sui": 4001,
      "vòi": 4002,
      "bả": 4003,
      "góa": 4004,
      "hũ": 4005,
      "mè": 4006,
      "rụt": 4007,
      "tì": 4008,
      "vé": 4009,
      "vỹ": 4010,
      "tuông": 4011,
      "khiu": 4012,
      "chuộng": 4013,
      "dẻ": 4014,
      "fa": 4015,
      "gầu": 4016,
      "kiềng": 4017,
      "lơn": 4018,
      "mền": 4019,
      "mẩy": 4020,
      "tỉm": 4021,
      "ngụy": 4022,
      "quờ": 4023,
      "đun": 4024,
      "dàu": 4025,
      "cước": 4026,
      "gông": 4027,
      "gấu": 4028,
      "vy": 4029,
      "ngốc": 4030,
      "nhác": 4031,
      "khấu": 4032,
      "que": 4033,
      "phó": 4034,
      "cáy": 4035,
      "ghém": 4036,
      "gớm": 4037,
      "mí": 4038,
      "mậu": 4039,
      "nẽo": 4040,
      "rông": 4041,
      "rần": 4042,
      "sâm": 4043,
      "tải": 4044,
      "tảng": 4045,
      "xịt": 4046,
      "ngợp": 4047,
      "khò": 4048,
      "khấp": 4049,
      "phăng": 4050,
      "thuật": 4051,
      "nguời": 4052,
      "thủng": 4053,
      "đủng": 4054,
      "am": 4055,
      "dọa": 4056,
      "găm": 4057,
      "nang": 4058,
      "rạn": 4059,
      "sùng": 4060,
      "tột": 4061,
      "ảm": 4062,
      "chẵn": 4063,
      "tuân": 4064,
      "gàn": 4065,
      "lép": 4066,
      "mọt": 4067,
      "mướn": 4068,
      "rè": 4069,
      "rắm": 4070,
      "ráo": 4071,
      "sục": 4072,
      "tụy": 4073,
      "xăng": 4074,
      "yểu": 4075,
      "khêu": 4076,
      "quẫy": 4077,
      "phiếu": 4078,
      "khoanh": 4079,
      "kích": 4080,
      "truông": 4081,
      "dòm": 4082,
      "hãnh": 4083,
      "kiệm": 4084,
      "đùn": 4085,
      "ới": 4086,
      "##ẽn": 4087,
      "nhăm": 4088,
      "băm": 4089,
      "dìm": 4090,
      "gả": 4091,
      "hổi": 4092,
      "mỳ": 4093,
      "mòng": 4094,
      "thửa": 4095,
      "phấp": 4096,
      "nệm": 4097,
      "cời": 4098,
      "hợi": 4099,
      "kiêng": 4100,
      "rỏ": 4101,
      "thự": 4102,
      "thậm": 4103,
      "chiền": 4104,
      "chẩy": 4105,
      "ngòi": 4106,
      "trịnh": 4107,
      "quỹ": 4108,
      "phang": 4109,
      "phèn": 4110,
      "tuồng": 4111,
      "dìa": 4112,
      "nẫu": 4113,
      "rói": 4114,
      "xòai": 4115,
      "đẽo": 4116,
      "chổng": 4117,
      "ngọ": 4118,
      "trồ": 4119,
      "giầy": 4120,
      "quằn": 4121,
      "phả": 4122,
      "muông": 4123,
      "nuông": 4124,
      "nhuỵ": 4125,
      "liêm": 4126,
      "bỡ": 4127,
      "bột": 4128,
      "dụm": 4129,
      "go": 4130,
      "gàng": 4131,
      "hớ": 4132,
      "hến": 4133,
      "ko": 4134,
      "kèo": 4135,
      "nê": 4136,
      "đì": 4137,
      "đốn": 4138,
      "ủng": 4139,
      "thiều": 4140,
      "chõng": 4141,
      "ngạo": 4142,
      "nhe": 4143,
      "gianh": 4144,
      "khù": 4145,
      "hoảng": 4146,
      "tiếu": 4147,
      "dặc": 4148,
      "gàu": 4149,
      "củng": 4150,
      "mãnh": 4151,
      "fây": 4152,
      "kiện": 4153,
      "lọng": 4154,
      "nản": 4155,
      "sạm": 4156,
      "viềng": 4157,
      "nhao": 4158,
      "nhẩm": 4159,
      "giạt": 4160,
      "qui": 4161,
      "phiếm": 4162,
      "hoạt": 4163,
      "khoán": 4164,
      "tỉa": 4165,
      "cẳng": 4166,
      "xỏa": 4167,
      "điếc": 4168,
      "##ụa": 4169,
      "chau": 4170,
      "ngớt": 4171,
      "quát": 4172,
      "cáp": 4173,
      "huê": 4174,
      "niêm": 4175,
      "xát": 4176,
      "thẩm": 4177,
      "huỳnh": 4178,
      "túy": 4179,
      "bươm": 4180,
      "rạc": 4181,
      "sì": 4182,
      "sồi": 4183,
      "sạt": 4184,
      "xảo": 4185,
      "úng": 4186,
      "đính": 4187,
      "đớp": 4188,
      "khản": 4189,
      "ngoãn": 4190,
      "lẻn": 4191,
      "tràm": 4192,
      "cụm": 4193,
      "chòm": 4194,
      "dình": 4195,
      "dòn": 4196,
      "hỗ": 4197,
      "tị": 4198,
      "vưởng": 4199,
      "xí": 4200,
      "xiềng": 4201,
      "trá": 4202,
      "nhút": 4203,
      "nhọn": 4204,
      "phay": 4205,
      "toát": 4206,
      "cụt": 4207,
      "lồ": 4208,
      "lằn": 4209,
      "mót": 4210,
      "sủa": 4211,
      "đôn": 4212,
      "chước": 4213,
      "nhòai": 4214,
      "khả": 4215,
      "pho": 4216,
      "biện": 4217,
      "mọn": 4218,
      "mịch": 4219,
      "sô": 4220,
      "súc": 4221,
      "sám": 4222,
      "tụi": 4223,
      "ăm": 4224,
      "đặn": 4225,
      "##un": 4226,
      "##ce": 4227,
      "##ễnh": 4228,
      "chùi": 4229,
      "ngừa": 4230,
      "quật": 4231,
      "làu": 4232,
      "ruồi": 4233,
      "bím": 4234,
      "face": 4235,
      "dán": 4236,
      "máng": 4237,
      "nặn": 4238,
      "ui": 4239,
      "uẩn": 4240,
      "xỏ": 4241,
      "đấm": 4242,
      "ạt": 4243,
      "thắc": 4244,
      "thòi": 4245,
      "chỏng": 4246,
      "ngặt": 4247,
      "nhẩy": 4248,
      "quẻ": 4249,
      "thoăn": 4250,
      "đoái": 4251,
      "lóe": 4252,
      "rổ": 4253,
      "rây": 4254,
      "túm": 4255,
      "vớ": 4256,
      "ươi": 4257,
      "##ỉu": 4258,
      "chấn": 4259,
      "trướng": 4260,
      "đoạ": 4261,
      "bẽo": 4262,
      "cúp": 4263,
      "dẳng": 4264,
      "huyệt": 4265,
      "lú": 4266,
      "lỏi": 4267,
      "moi": 4268,
      "nênh": 4269,
      "nộp": 4270,
      "rú": 4271,
      "tá": 4272,
      "túp": 4273,
      "xáo": 4274,
      "##ệu": 4275,
      "nhăng": 4276,
      "phẩy": 4277,
      "bõm": 4278,
      "dơi": 4279,
      "gẩy": 4280,
      "lỳ": 4281,
      "lêu": 4282,
      "lẫm": 4283,
      "nút": 4284,
      "nựng": 4285,
      "ròn": 4286,
      "đười": 4287,
      "ngợm": 4288,
      "giàng": 4289,
      "quẳng": 4290,
      "láo": 4291,
      "thia": 4292,
      "cụng": 4293,
      "dùi": 4294,
      "gí": 4295,
      "mét": 4296,
      "rợn": 4297,
      "um": 4298,
      "đanh": 4299,
      "chử": 4300,
      "giun": 4301,
      "kham": 4302,
      "tiển": 4303,
      "huống": 4304,
      "bơm": 4305,
      "gạ": 4306,
      "lí": 4307,
      "lè": 4308,
      "mứt": 4309,
      "nải": 4310,
      "rúc": 4311,
      "tùm": 4312,
      "tẩm": 4313,
      "xúm": 4314,
      "ngoi": 4315,
      "trối": 4316,
      "trượng": 4317,
      "nhóc": 4318,
      "khít": 4319,
      "quỉ": 4320,
      "dạm": 4321,
      "xoè": 4322,
      "xoải": 4323,
      "bảnh": 4324,
      "cang": 4325,
      "húp": 4326,
      "hớp": 4327,
      "lõm": 4328,
      "múi": 4329,
      "ren": 4330,
      "sam": 4331,
      "##ẵm": 4332,
      "chèn": 4333,
      "tráo": 4334,
      "quấy": 4335,
      "xoã": 4336,
      "mĩm": 4337,
      "bâu": 4338,
      "gài": 4339,
      "lủng": 4340,
      "sò": 4341,
      "đốc": 4342,
      "ời": 4343,
      "##ều": 4344,
      "ngót": 4345,
      "ngỗng": 4346,
      "nhảnh": 4347,
      "phan": 4348,
      "khiêng": 4349,
      "kíp": 4350,
      "dằn": 4351,
      "inh": 4352,
      "kỵ": 4353,
      "lự": 4354,
      "lữa": 4355,
      "lẩy": 4356,
      "mủ": 4357,
      "mầy": 4358,
      "nứa": 4359,
      "sói": 4360,
      "vẩy": 4361,
      "xù": 4362,
      "xổ": 4363,
      "xước": 4364,
      "##ễng": 4365,
      "chéo": 4366,
      "ngụ": 4367,
      "ngưởng": 4368,
      "trầy": 4369,
      "trật": 4370,
      "khảo": 4371,
      "khuyến": 4372,
      "khoét": 4373,
      "khuân": 4374,
      "đoạt": 4375,
      "ngoằn": 4376,
      "en": 4377,
      "hệt": 4378,
      "lằng": 4379,
      "tợ": 4380,
      "ên": 4381,
      "##ệch": 4382,
      "##ốp": 4383,
      "triết": 4384,
      "khảy": 4385,
      "phơn": 4386,
      "lạch": 4387,
      "thuế": 4388,
      "tuế": 4389,
      "thoạt": 4390,
      "lụn": 4391,
      "lắp": 4392,
      "móm": 4393,
      "riêu": 4394,
      "sưng": 4395,
      "át": 4396,
      "ngiêng": 4397,
      "nhọ": 4398,
      "khố": 4399,
      "phổi": 4400,
      "cóp": 4401,
      "tíu": 4402,
      "tửng": 4403,
      "bọ": 4404,
      "bính": 4405,
      "kình": 4406,
      "lẩm": 4407,
      "mấp": 4408,
      "nường": 4409,
      "vượn": 4410,
      "thụt": 4411,
      "chảo": 4412,
      "nhúm": 4413,
      "khân": 4414,
      "khớp": 4415,
      "nghèn": 4416,
      "láp": 4417,
      "thếch": 4418,
      "cọp": 4419,
      "phếch": 4420,
      "banh": 4421,
      "beo": 4422,
      "búi": 4423,
      "bấp": 4424,
      "bỡi": 4425,
      "bẫm": 4426,
      "bìa": 4427,
      "bổn": 4428,
      "cúm": 4429,
      "gam": 4430,
      "hênh": 4431,
      "mớm": 4432,
      "mỉa": 4433,
      "né": 4434,
      "om": 4435,
      "re": 4436,
      "àh": 4437,
      "đít": 4438,
      "nhĩ": 4439,
      "giẫm": 4440,
      "khương": 4441,
      "khoắt": 4442,
      "tưởi": 4443,
      "suýt": 4444,
      "gío": 4445,
      "bộc": 4446,
      "gạc": 4447,
      "gáo": 4448,
      "gẫm": 4449,
      "húc": 4450,
      "hốc": 4451,
      "hạng": 4452,
      "mạo": 4453,
      "xỉn": 4454,
      "thừng": 4455,
      "trọi": 4456,
      "nhẽ": 4457,
      "khểnh": 4458,
      "khoản": 4459,
      "nhẹt": 4460,
      "nguýt": 4461,
      "xoắn": 4462,
      "cộ": 4463,
      "gâu": 4464,
      "sẹo": 4465,
      "tụt": 4466,
      "##ựt": 4467,
      "thồ": 4468,
      "chôm": 4469,
      "ngạc": 4470,
      "ngáy": 4471,
      "trỗ": 4472,
      "trổi": 4473,
      "trẫm": 4474,
      "nham": 4475,
      "phừng": 4476,
      "truồng": 4477,
      "hột": 4478,
      "iu": 4479,
      "liu": 4480,
      "tỏi": 4481,
      "đọ": 4482,
      "ắng": 4483,
      "ngứa": 4484,
      "ngụm": 4485,
      "trấu": 4486,
      "cùm": 4487,
      "hợt": 4488,
      "lồi": 4489,
      "lóa": 4490,
      "lẵng": 4491,
      "rĩ": 4492,
      "rệu": 4493,
      "tệ": 4494,
      "tỵ": 4495,
      "trườn": 4496,
      "nghén": 4497,
      "hoi": 4498,
      "đót": 4499,
      "khoát": 4500,
      "đoản": 4501,
      "tụm": 4502,
      "cùn": 4503,
      "bửa": 4504,
      "hiềm": 4505,
      "lù": 4506,
      "lõi": 4507,
      "lún": 4508,
      "mạt": 4509,
      "mút": 4510,
      "nôm": 4511,
      "nốc": 4512,
      "oái": 4513,
      "rù": 4514,
      "rươi": 4515,
      "rằn": 4516,
      "vạng": 4517,
      "xính": 4518,
      "xưởng": 4519,
      "úi": 4520,
      "đở": 4521,
      "đúm": 4522,
      "thán": 4523,
      "ngừ": 4524,
      "trê": 4525,
      "nhái": 4526,
      "nhấc": 4527,
      "khướt": 4528,
      "quệt": 4529,
      "phên": 4530,
      "tuất": 4531,
      "nguẩy": 4532,
      "nhuận": 4533,
      "lưỡng": 4534,
      "hủy": 4535,
      "gắp": 4536,
      "gềnh": 4537,
      "jan": 4538,
      "kiết": 4539,
      "lậy": 4540,
      "liếm": 4541,
      "mả": 4542,
      "piêu": 4543,
      "rán": 4544,
      "rạp": 4545,
      "sực": 4546,
      "xấp": 4547,
      "điếm": 4548,
      "##ửu": 4549,
      "thòng": 4550,
      "chòe": 4551,
      "ngúng": 4552,
      "nhúng": 4553,
      "nhõm": 4554,
      "lum": 4555,
      "toa": 4556,
      "vàm": 4557,
      "bịu": 4558,
      "lòi": 4559,
      "nia": 4560,
      "hẩy": 4561,
      "ken": 4562,
      "nách": 4563,
      "rơn": 4564,
      "rén": 4565,
      "rỉnh": 4566,
      "sỉn": 4567,
      "vót": 4568,
      "xẩm": 4569,
      "ổng": 4570,
      "chóc": 4571,
      "ngáp": 4572,
      "trừng": 4573,
      "trìu": 4574,
      "nhích": 4575,
      "giắt": 4576,
      "phò": 4577,
      "phạc": 4578,
      "lom": 4579,
      "loãng": 4580,
      "toe": 4581,
      "ngoèo": 4582,
      "kiểng": 4583,
      "hỗn": 4584,
      "bệ": 4585,
      "cỡi": 4586,
      "gờn": 4587,
      "họng": 4588,
      "hực": 4589,
      "lết": 4590,
      "rữa": 4591,
      "rốt": 4592,
      "rón": 4593,
      "tẻ": 4594,
      "vú": 4595,
      "thiệu": 4596,
      "nhợt": 4597,
      "khiêu": 4598,
      "khập": 4599,
      "chỉn": 4600,
      "nghệch": 4601,
      "bạ": 4602,
      "bỉ": 4603,
      "bịp": 4604,
      "cừ": 4605,
      "cạo": 4606,
      "hách": 4607,
      "ke": 4608,
      "kẹp": 4609,
      "liệm": 4610,
      "mung": 4611,
      "mìn": 4612,
      "mèn": 4613,
      "mém": 4614,
      "nót": 4615,
      "nít": 4616,
      "oang": 4617,
      "rương": 4618,
      "riu": 4619,
      "săm": 4620,
      "tằn": 4621,
      "xúng": 4622,
      "chòi": 4623,
      "trớn": 4624,
      "giựt": 4625,
      "phè": 4626,
      "toạc": 4627,
      "hãm": 4628,
      "dz": 4629,
      "dọi": 4630,
      "hùa": 4631,
      "hãn": 4632,
      "két": 4633,
      "nạp": 4634,
      "rồ": 4635,
      "rùi": 4636,
      "rưới": 4637,
      "ròi": 4638,
      "sậu": 4639,
      "sặc": 4640,
      "tó": 4641,
      "tắn": 4642,
      "tươm": 4643,
      "ậm": 4644,
      "ỏi": 4645,
      "##ỏm": 4646,
      "thốn": 4647,
      "chạng": 4648,
      "nhẹn": 4649,
      "giồng": 4650,
      "khuẩn": 4651,
      "đổng": 4652,
      "bục": 4653,
      "cạp": 4654,
      "gồ": 4655,
      "hù": 4656,
      "hắc": 4657,
      "hùm": 4658,
      "mâu": 4659,
      "mão": 4660,
      "rờ": 4661,
      "sút": 4662,
      "ách": 4663,
      "đẽ": 4664,
      "##ợc": 4665,
      "ngong": 4666,
      "ngáo": 4667,
      "nhó": 4668,
      "##ươu": 4669,
      "choa": 4670,
      "lán": 4671,
      "ghẻ": 4672,
      "luỵ": 4673,
      "rủng": 4674,
      "tạp": 4675,
      "bở": 4676,
      "he": 4677,
      "kịt": 4678,
      "lùm": 4679,
      "mó": 4680,
      "oải": 4681,
      "sả": 4682,
      "vốc": 4683,
      "đực": 4684,
      "ẹo": 4685,
      "##ạy": 4686,
      "thạo": 4687,
      "thía": 4688,
      "chồm": 4689,
      "trảy": 4690,
      "nhông": 4691,
      "nhét": 4692,
      "khay": 4693,
      "khau": 4694,
      "khắt": 4695,
      "phức": 4696,
      "choạng": 4697,
      "vuột": 4698,
      "khoả": 4699,
      "chuân": 4700,
      "quyệt": 4701,
      "nhuốc": 4702,
      "môt": 4703,
      "ria": 4704,
      "cưỡng": 4705,
      "mím": 4706,
      "bét": 4707,
      "bậy": 4708,
      "cửi": 4709,
      "dí": 4710,
      "hừ": 4711,
      "lựng": 4712,
      "ná": 4713,
      "nại": 4714,
      "núng": 4715,
      "nán": 4716,
      "nơm": 4717,
      "nện": 4718,
      "tạng": 4719,
      "tậu": 4720,
      "xén": 4721,
      "ình": 4722,
      "đút": 4723,
      "ươn": 4724,
      "ủy": 4725,
      "##ụn": 4726,
      "thóp": 4727,
      "ngở": 4728,
      "nhắp": 4729,
      "phình": 4730,
      "cói": 4731,
      "cui": 4732,
      "cẩu": 4733,
      "gá": 4734,
      "gụ": 4735,
      "gậm": 4736,
      "hễ": 4737,
      "hớt": 4738,
      "mợ": 4739,
      "nộ": 4740,
      "sèo": 4741,
      "sảy": 4742,
      "tóp": 4743,
      "vập": 4744,
      "xè": 4745,
      "thõng": 4746,
      "thụy": 4747,
      "chiết": 4748,
      "trích": 4749,
      "khàn": 4750,
      "khủng": 4751,
      "khều": 4752,
      "què": 4753,
      "quầy": 4754,
      "phỏng": 4755,
      "buâng": 4756,
      "tuốt": 4757,
      "chịt": 4758,
      "rượt": 4759,
      "thểu": 4760,
      "huân": 4761,
      "tóe": 4762,
      "bặm": 4763,
      "cộc": 4764,
      "dô": 4765,
      "dấy": 4766,
      "kịch": 4767,
      "lòn": 4768,
      "léo": 4769,
      "nơ": 4770,
      "nãy": 4771,
      "rân": 4772,
      "tè": 4773,
      "tèo": 4774,
      "vểnh": 4775,
      "điếng": 4776,
      "ẻm": 4777,
      "thải": 4778,
      "thãi": 4779,
      "chác": 4780,
      "chằm": 4781,
      "triệt": 4782,
      "nhùng": 4783,
      "nhõng": 4784,
      "nháp": 4785,
      "gièm": 4786,
      "hom": 4787,
      "thuồng": 4788,
      "tiêm": 4789,
      "chợp": 4790,
      "huấn": 4791,
      "lãm": 4792,
      "bĩ": 4793,
      "bấn": 4794,
      "bịnh": 4795,
      "bẵng": 4796,
      "diệp": 4797,
      "lẩu": 4798,
      "lốp": 4799,
      "mao": 4800,
      "mổi": 4801,
      "mom": 4802,
      "néo": 4803,
      "nảo": 4804,
      "riết": 4805,
      "rục": 4806,
      "riềng": 4807,
      "sụp": 4808,
      "sủng": 4809,
      "tót": 4810,
      "vày": 4811,
      "đẫn": 4812,
      "chiện": 4813,
      "ngò": 4814,
      "quáng": 4815,
      "thìa": 4816,
      "hòm": 4817,
      "láy": 4818,
      "suất": 4819,
      "tòm": 4820,
      "vín": 4821,
      "bự": 4822,
      "cữ": 4823,
      "cặn": 4824,
      "cạm": 4825,
      "dấp": 4826,
      "mủi": 4827,
      "nằng": 4828,
      "oe": 4829,
      "rớm": 4830,
      "sú": 4831,
      "tủa": 4832,
      "tóm": 4833,
      "váng": 4834,
      "vấy": 4835,
      "xàng": 4836,
      "##ếnh": 4837,
      "ngồn": 4838,
      "nhứt": 4839,
      "giong": 4840,
      "gián": 4841,
      "giũa": 4842,
      "khước": 4843,
      "khênh": 4844,
      "nghen": 4845,
      "nghía": 4846,
      "mui": 4847,
      "bàu": 4848,
      "khuynh": 4849,
      "thiêm": 4850,
      "đuống": 4851,
      "đồm": 4852,
      "dược": 4853,
      "hý": 4854,
      "kép": 4855,
      "lủ": 4856,
      "lùn": 4857,
      "lườm": 4858,
      "nùi": 4859,
      "sớ": 4860,
      "tét": 4861,
      "xề": 4862,
      "ngải": 4863,
      "ngạn": 4864,
      "ngẹn": 4865,
      "nhối": 4866,
      "nhẵn": 4867,
      "nhếch": 4868,
      "giử": 4869,
      "khét": 4870,
      "nghè": 4871,
      "nghếch": 4872,
      "mẹt": 4873,
      "ghề": 4874,
      "khui": 4875,
      "hèm": 4876,
      "đui": 4877,
      "duỗi": 4878,
      "nhoẹt": 4879,
      "thím": 4880,
      "bổi": 4881,
      "bịch": 4882,
      "dốt": 4883,
      "gọng": 4884,
      "lèn": 4885,
      "miện": 4886,
      "nậm": 4887,
      "oăm": 4888,
      "rười": 4889,
      "sếu": 4890,
      "sẳn": 4891,
      "vồi": 4892,
      "xói": 4893,
      "đụn": 4894,
      "thít": 4895,
      "chấu": 4896,
      "chiềng": 4897,
      "ngộn": 4898,
      "nhờn": 4899,
      "giậy": 4900,
      "quảy": 4901,
      "hoại": 4902,
      "buột": 4903,
      "cảo": 4904,
      "càm": 4905,
      "rãnh": 4906,
      "mũm": 4907,
      "búng": 4908,
      "hì": 4909,
      "lốt": 4910,
      "mằn": 4911,
      "nòng": 4912,
      "ráp": 4913,
      "sê": 4914,
      "sỡ": 4915,
      "sún": 4916,
      "##êc": 4917,
      "thầu": 4918,
      "chêm": 4919,
      "ngậy": 4920,
      "trạch": 4921,
      "nghễ": 4922,
      "nghành": 4923,
      "nghịu": 4924,
      "từa": 4925,
      "dăn": 4926,
      "duyệt": 4927,
      "gao": 4928,
      "gồm": 4929,
      "hằm": 4930,
      "hụp": 4931,
      "lõa": 4932,
      "rỉa": 4933,
      "tau": 4934,
      "vựa": 4935,
      "xắp": 4936,
      "ưỡn": 4937,
      "##ớc": 4938,
      "ngọng": 4939,
      "ngửi": 4940,
      "nhạnh": 4941,
      "gio": 4942,
      "gióng": 4943,
      "quẫn": 4944,
      "quại": 4945,
      "quẹo": 4946,
      "phết": 4947,
      "nghẽn": 4948,
      "hoán": 4949,
      "thuỳ": 4950,
      "hòe": 4951,
      "ghánh": 4952,
      "tom": 4953,
      "ngoe": 4954,
      "nhoáng": 4955,
      "hổm": 4956,
      "com": 4957,
      "de": 4958,
      "dận": 4959,
      "dụi": 4960,
      "fay": 4961,
      "hiếp": 4962,
      "luyên": 4963,
      "nấng": 4964,
      "rắp": 4965,
      "rẻo": 4966,
      "sòn": 4967,
      "sãi": 4968,
      "sậy": 4969,
      "sít": 4970,
      "vối": 4971,
      "xẩy": 4972,
      "xít": 4973,
      "õng": 4974,
      "đọi": 4975,
      "đụp": 4976,
      "ất": 4977,
      "##ỏn": 4978,
      "nhúc": 4979,
      "khừng": 4980,
      "khâm": 4981,
      "hoằng": 4982,
      "hòi": 4983,
      "bương": 4984,
      "bẵm": 4985,
      "dượng": 4986,
      "gỏi": 4987,
      "lể": 4988,
      "lít": 4989,
      "mề": 4990,
      "mức": 4991,
      "mẩu": 4992,
      "rọ": 4993,
      "rìu": 4994,
      "sủi": 4995,
      "tẹo": 4996,
      "vao": 4997,
      "vằn": 4998,
      "đễ": 4999,
      "##ẻm": 5000,
      "##ăt": 5001,
      "ngách": 5002,
      "nhão": 5003,
      "quánh": 5004,
      "phối": 5005,
      "phổng": 5006,
      "lạm": 5007,
      "bua": 5008,
      "giót": 5009,
      "lunh": 5010,
      "loằng": 5011,
      "khuông": 5012,
      "dua": 5013,
      "viêm": 5014,
      "bẻm": 5015,
      "guồng": 5016,
      "bết": 5017,
      "dền": 5018,
      "dảnh": 5019,
      "dũa": 5020,
      "gán": 5021,
      "lọi": 5022,
      "mươn": 5023,
      "nặc": 5024,
      "rề": 5025,
      "vảng": 5026,
      "zô": 5027,
      "đấp": 5028,
      "##ắk": 5029,
      "chảnh": 5030,
      "chìu": 5031,
      "ngăm": 5032,
      "ngột": 5033,
      "ngớn": 5034,
      "trịa": 5035,
      "nhãng": 5036,
      "khật": 5037,
      "quặng": 5038,
      "cáng": 5039,
      "mun": 5040,
      "khoắc": 5041,
      "thoai": 5042,
      "ngoằng": 5043,
      "duềnh": 5044,
      "xoong": 5045,
      "ngàu": 5046,
      "viêc": 5047,
      "kềnh": 5048,
      "chủng": 5049,
      "đếch": 5050,
      "bêu": 5051,
      "bỡn": 5052,
      "dóc": 5053,
      "dứa": 5054,
      "gôn": 5055,
      "hất": 5056,
      "hem": 5057,
      "ky": 5058,
      "kiền": 5059,
      "mủng": 5060,
      "nái": 5061,
      "sề": 5062,
      "sỉ": 5063,
      "sin": 5064,
      "tể": 5065,
      "tiệm": 5066,
      "tẹt": 5067,
      "vục": 5068,
      "xộc": 5069,
      "ùng": 5070,
      "đỉa": 5071,
      "ễnh": 5072,
      "##ăc": 5073,
      "thố": 5074,
      "chửng": 5075,
      "ngố": 5076,
      "giửa": 5077,
      "phung": 5078,
      "khoáng": 5079,
      "kiễng": 5080,
      "mõm": 5081,
      "cừu": 5082,
      "bễ": 5083,
      "bửu": 5084,
      "dổi": 5085,
      "dẩu": 5086,
      "gữ": 5087,
      "gấc": 5088,
      "hấng": 5089,
      "nã": 5090,
      "nượ": 5091,
      "núc": 5092,
      "nưng": 5093,
      "nám": 5094,
      "nườm": 5095,
      "rôm": 5096,
      "tầy": 5097,
      "uông": 5098,
      "vát": 5099,
      "xèo": 5100,
      "đơi": 5101,
      "thốc": 5102,
      "thám": 5103,
      "chây": 5104,
      "chột": 5105,
      "chỏm": 5106,
      "trợt": 5107,
      "nhố": 5108,
      "khứa": 5109,
      "##ươc": 5110,
      "phét": 5111,
      "nhớp": 5112,
      "choai": 5113,
      "thuý": 5114,
      "đuề": 5115,
      "huơ": 5116,
      "gữi": 5117,
      "nượp": 5118,
      "cật": 5119,
      "diên": 5120,
      "hươu": 5121,
      "hẻm": 5122,
      "lụng": 5123,
      "mẫm": 5124,
      "nấn": 5125,
      "oản": 5126,
      "sáp": 5127,
      "xuy": 5128,
      "xẻo": 5129,
      "xìu": 5130,
      "##ễu": 5131,
      "thèn": 5132,
      "ngóc": 5133,
      "trôn": 5134,
      "tróc": 5135,
      "giần": 5136,
      "giãy": 5137,
      "kheo": 5138,
      "phỉnh": 5139,
      "nhàm": 5140,
      "duổi": 5141,
      "thịch": 5142,
      "kệch": 5143,
      "chóe": 5144,
      "thỉu": 5145,
      "nhổm": 5146,
      "by": 5147,
      "bợ": 5148,
      "bấu": 5149,
      "cùi": 5150,
      "cớn": 5151,
      "dúi": 5152,
      "dèm": 5153,
      "gốm": 5154,
      "lặt": 5155,
      "lẳn": 5156,
      "mơi": 5157,
      "nanh": 5158,
      "nạm": 5159,
      "rụi": 5160,
      "sơi": 5161,
      "sứt": 5162,
      "táng": 5163,
      "tèm": 5164,
      "vổ": 5165,
      "vanh": 5166,
      "##éc": 5167,
      "thút": 5168,
      "chái": 5169,
      "tráp": 5170,
      "giội": 5171,
      "khú": 5172,
      "khỉnh": 5173,
      "khễnh": 5174,
      "quết": 5175,
      "hoãn": 5176,
      "nhược": 5177,
      "chờm": 5178,
      "tuỳ": 5179,
      "khiễng": 5180,
      "toét": 5181,
      "xoạc": 5182,
      "vit": 5183,
      "bịa": 5184,
      "cụp": 5185,
      "voan": 5186,
      "bướng": 5187,
      "hống": 5188,
      "kìn": 5189,
      "kĩu": 5190,
      "lút": 5191,
      "mãng": 5192,
      "nờ": 5193,
      "nắc": 5194,
      "nạng": 5195,
      "rá": 5196,
      "ràn": 5197,
      "riệu": 5198,
      "rịch": 5199,
      "sy": 5200,
      "sè": 5201,
      "seo": 5202,
      "sượng": 5203,
      "vùn": 5204,
      "xỉ": 5205,
      "yết": 5206,
      "##ũm": 5207,
      "thạc": 5208,
      "ngẩm": 5209,
      "trơi": 5210,
      "nhong": 5211,
      "giặm": 5212,
      "khiếu": 5213,
      "mẹo": 5214,
      "loạt": 5215,
      "thoái": 5216,
      "bỏm": 5217,
      "chuếnh": 5218,
      "quyển": 5219,
      "khổng": 5220,
      "toác": 5221,
      "soan": 5222,
      "lộp": 5223,
      "vởn": 5224,
      "ràm": 5225,
      "bưa": 5226,
      "bẹp": 5227,
      "cồ": 5228,
      "cự": 5229,
      "cược": 5230,
      "dạc": 5231,
      "dấm": 5232,
      "fe": 5233,
      "gở": 5234,
      "gãi": 5235,
      "hen": 5236,
      "kĩ": 5237,
      "lảo": 5238,
      "lợt": 5239,
      "nạ": 5240,
      "on": 5241,
      "pin": 5242,
      "sảo": 5243,
      "sưu": 5244,
      "sảnh": 5245,
      "sướt": 5246,
      "xị": 5247,
      "xở": 5248,
      "xịn": 5249,
      "xệch": 5250,
      "èo": 5251,
      "ún": 5252,
      "đát": 5253,
      "ỉu": 5254,
      "chận": 5255,
      "chĩu": 5256,
      "trát": 5257,
      "trảng": 5258,
      "trẽn": 5259,
      "nhay": 5260,
      "nhại": 5261,
      "giê": 5262,
      "khảnh": 5263,
      "quành": 5264,
      "quắp": 5265,
      "phăm": 5266,
      "cót": 5267,
      "mêng": 5268,
      "luẩn": 5269,
      "khuyển": 5270,
      "sửng": 5271,
      "soát": 5272,
      "hia": 5273,
      "xàm": 5274,
      "aó": 5275,
      "ang": 5276,
      "dẫy": 5277,
      "dỡn": 5278,
      "lèm": 5279,
      "măm": 5280,
      "rôn": 5281,
      "rốc": 5282,
      "rám": 5283,
      "rướm": 5284,
      "sã": 5285,
      "vữa": 5286,
      "xỉa": 5287,
      "đù": 5288,
      "đễnh": 5289,
      "thắn": 5290,
      "chãi": 5291,
      "chưởng": 5292,
      "ngợ": 5293,
      "trắm": 5294,
      "trục": 5295,
      "nhộng": 5296,
      "giụa": 5297,
      "khẳm": 5298,
      "quở": 5299,
      "quạng": 5300,
      "lạp": 5301,
      "ruỗi": 5302,
      "ghè": 5303,
      "chun": 5304,
      "rỡn": 5305,
      "dĩa": 5306,
      "leng": 5307,
      "nhũn": 5308,
      "keng": 5309,
      "bít": 5310,
      "cữa": 5311,
      "gát": 5312,
      "hói": 5313,
      "hục": 5314,
      "hủi": 5315,
      "kềm": 5316,
      "lới": 5317,
      "lỉu": 5318,
      "miêu": 5319,
      "mán": 5320,
      "nạt": 5321,
      "pà": 5322,
      "qúa": 5323,
      "rộm": 5324,
      "sắng": 5325,
      "sấy": 5326,
      "sém": 5327,
      "vồn": 5328,
      "úc": 5329,
      "đước": 5330,
      "đản": 5331,
      "địu": 5332,
      "đũi": 5333,
      "##ễm": 5334,
      "thớ": 5335,
      "thưng": 5336,
      "chão": 5337,
      "ngỗ": 5338,
      "ngấu": 5339,
      "trĩnh": 5340,
      "nhôi": 5341,
      "giậm": 5342,
      "quắc": 5343,
      "cóm": 5344,
      "tuếch": 5345,
      "luỹ": 5346,
      "khoá": 5347,
      "##ine": 5348,
      "ngun": 5349,
      "duối": 5350,
      "tòi": 5351,
      "nghiã": 5352,
      "soải": 5353,
      "tốp": 5354,
      "boong": 5355,
      "bụ": 5356,
      "bải": 5357,
      "bin": 5358,
      "bỉu": 5359,
      "cạch": 5360,
      "dôi": 5361,
      "dằm": 5362,
      "diễu": 5363,
      "dãn": 5364,
      "diếc": 5365,
      "găng": 5366,
      "hảy": 5367,
      "hợm": 5368,
      "kị": 5369,
      "mói": 5370,
      "nử": 5371,
      "nạnh": 5372,
      "rường": 5373,
      "rúm": 5374,
      "tâng": 5375,
      "tẻo": 5376,
      "xò": 5377,
      "xầm": 5378,
      "xóc": 5379,
      "xạm": 5380,
      "đán": 5381,
      "thy": 5382,
      "thượt": 5383,
      "chộn": 5384,
      "chơm": 5385,
      "chóp": 5386,
      "chộp": 5387,
      "chũm": 5388,
      "ngữa": 5389,
      "trố": 5390,
      "tran": 5391,
      "triêu": 5392,
      "trạnh": 5393,
      "trợn": 5394,
      "nhéo": 5395,
      "nhíu": 5396,
      "nhạy": 5397,
      "khề": 5398,
      "phúng": 5399,
      "##ướu": 5400,
      "muồng": 5401,
      "chuổi": 5402,
      "suê": 5403,
      "kẻng": 5404,
      "ngoặc": 5405,
      "nhuệ": 5406,
      "lởn": 5407,
      "sếnh": 5408,
      "bủ": 5409,
      "cã": 5410,
      "cườm": 5411,
      "din": 5412,
      "diềm": 5413,
      "gặng": 5414,
      "gía": 5415,
      "hẻo": 5416,
      "ka": 5417,
      "kền": 5418,
      "mống": 5419,
      "pơ": 5420,
      "pây": 5421,
      "pốt": 5422,
      "qủa": 5423,
      "rơ": 5424,
      "rặm": 5425,
      "sh": 5426,
      "sỗ": 5427,
      "sên": 5428,
      "sác": 5429,
      "sậm": 5430,
      "sạp": 5431,
      "tưa": 5432,
      "ten": 5433,
      "tếu": 5434,
      "tễnh": 5435,
      "vói": 5436,
      "vạm": 5437,
      "vẵng": 5438,
      "xạo": 5439,
      "xồm": 5440,
      "za": 5441,
      "ém": 5442,
      "úy": 5443,
      "đét": 5444,
      "đẩm": 5445,
      "đắk": 5446,
      "##âp": 5447,
      "##ât": 5448,
      "##ỗm": 5449,
      "##de": 5450,
      "thĩ": 5451,
      "thỏi": 5452,
      "chù": 5453,
      "ngật": 5454,
      "trây": 5455,
      "trác": 5456,
      "nhầy": 5457,
      "nhiếp": 5458,
      "quỵ": 5459,
      "buýt": 5460,
      "thuôn": 5461,
      "thuẫn": 5462,
      "cuông": 5463,
      "thìn": 5464,
      "ruông": 5465,
      "ghanh": 5466,
      "lua": 5467,
      "đòang": 5468,
      "chíp": 5469,
      "khum": 5470,
      "nude": 5471,
      "đuợc": 5472,
      "càu": 5473,
      "kẽm": 5474,
      "thòm": 5475,
      "bụa": 5476,
      "cở": 5477,
      "cạy": 5478,
      "dả": 5479,
      "dìn": 5480,
      "dỏng": 5481,
      "gă": 5482,
      "gút": 5483,
      "hước": 5484,
      "hổn": 5485,
      "hỏn": 5486,
      "lải": 5487,
      "lích": 5488,
      "lặc": 5489,
      "mồn": 5490,
      "rở": 5491,
      "rợi": 5492,
      "rủa": 5493,
      "rõi": 5494,
      "rịa": 5495,
      "rưỡi": 5496,
      "rựu": 5497,
      "sạo": 5498,
      "súp": 5499,
      "sểnh": 5500,
      "uế": 5501,
      "vêu": 5502,
      "xạ": 5503,
      "xừ": 5504,
      "xùm": 5505,
      "xốp": 5506,
      "âý": 5507,
      "đú": 5508,
      "đái": 5509,
      "đạc": 5510,
      "đúa": 5511,
      "ẩu": 5512,
      "ớn": 5513,
      "##âý": 5514,
      "##ke": 5515,
      "##­­": 5516,
      "thẻo": 5517,
      "chắng": 5518,
      "chẫm": 5519,
      "ngèo": 5520,
      "trỏ": 5521,
      "trọt": 5522,
      "trược": 5523,
      "nhử": 5524,
      "giắc": 5525,
      "giập": 5526,
      "giếm": 5527,
      "khè": 5528,
      "khẻ": 5529,
      "phãi": 5530,
      "phềnh": 5531,
      "phỡn": 5532,
      "hoằn": 5533,
      "thuơng": 5534,
      "loét": 5535,
      "sua": 5536,
      "xoăn": 5537,
      "like": 5538,
      "soái": 5539,
      "đốp": 5540,
      "rim": 5541,
      "game": 5542,
      "ah": 5543,
      "bơn": 5544,
      "bẻo": 5545,
      "bẫng": 5546,
      "dổ": 5547,
      "dọ": 5548,
      "dái": 5549,
      "dơn": 5550,
      "dợn": 5551,
      "fê": 5552,
      "gỉ": 5553,
      "gét": 5554,
      "hắng": 5555,
      "hấn": 5556,
      "hãng": 5557,
      "lềnh": 5558,
      "mánh": 5559,
      "mớn": 5560,
      "nin": 5561,
      "nộm": 5562,
      "oạp": 5563,
      "oẳn": 5564,
      "pô": 5565,
      "pắc": 5566,
      "rêm": 5567,
      "rài": 5568,
      "rộc": 5569,
      "rưởi": 5570,
      "rổn": 5571,
      "sổng": 5572,
      "tơn": 5573,
      "tẩu": 5574,
      "uể": 5575,
      "ùm": 5576,
      "đật": 5577,
      "đươc": 5578,
      "đéc": 5579,
      "ẻo": 5580,
      "ộp": 5581,
      "##ok": 5582,
      "##ợng": 5583,
      "thè": 5584,
      "chạc": 5585,
      "chẩn": 5586,
      "chểnh": 5587,
      "chễm": 5588,
      "ngạnh": 5589,
      "trỡ": 5590,
      "trạc": 5591,
      "trâng": 5592,
      "trỉu": 5593,
      "nhễ": 5594,
      "nhốn": 5595,
      "nhôm": 5596,
      "giồi": 5597,
      "gien": 5598,
      "giọi": 5599,
      "khử": 5600,
      "khèo": 5601,
      "khệnh": 5602,
      "quăn": 5603,
      "phiu": 5604,
      "mội": 5605,
      "choang": 5606,
      "hoắc": 5607,
      "xuốt": 5608,
      "ram": 5609,
      "muôi": 5610,
      "tum": 5611,
      "tuồn": 5612,
      "khiển": 5613,
      "ruốc": 5614,
      "thếp": 5615,
      "ghèn": 5616,
      "luốc": 5617,
      "luênh": 5618,
      "suôi": 5619,
      "chíu": 5620,
      "ngoặt": 5621,
      "duệ": 5622,
      "xoả": 5623,
      "chạch": 5624,
      "điểu": 5625,
      "đep": 5626,
      "lẹm": 5627,
      "biều": 5628,
      "bứng": 5629,
      "bợm": 5630,
      "dúm": 5631,
      "gổ": 5632,
      "gừ": 5633,
      "hẹ": 5634,
      "hác": 5635,
      "hển": 5636,
      "lảy": 5637,
      "liễn": 5638,
      "lỏn": 5639,
      "mưng": 5640,
      "măt": 5641,
      "nưa": 5642,
      "nống": 5643,
      "nắp": 5644,
      "tãi": 5645,
      "un": 5646,
      "xúi": 5647,
      "xỉnh": 5648,
      "##ưỡn": 5649,
      "thẩy": 5650,
      "chệ": 5651,
      "chội": 5652,
      "chềnh": 5653,
      "ngổ": 5654,
      "ngấy": 5655,
      "ngầy": 5656,
      "ngụa": 5657,
      "trám": 5658,
      "trụy": 5659,
      "nhắt": 5660,
      "nhởi": 5661,
      "nhỡn": 5662,
      "khán": 5663,
      "quẹt": 5664,
      "xam": 5665,
      "lạn": 5666,
      "nhượng": 5667,
      "bui": 5668,
      "thun": 5669,
      "tuỵ": 5670,
      "ruồng": 5671,
      "suồng": 5672,
      "tàm": 5673,
      "ngoắt": 5674,
      "huênh": 5675,
      "mỏm": 5676,
      "găp": 5677,
      "bằm": 5678,
      "bưu": 5679,
      "bãng": 5680,
      "bụm": 5681,
      "dũ": 5682,
      "dẵm": 5683,
      "gơ": 5684,
      "gẹo": 5685,
      "hâu": 5686,
      "hầy": 5687,
      "hạo": 5688,
      "hùn": 5689,
      "hửu": 5690,
      "iêu": 5691,
      "iem": 5692,
      "kon": 5693,
      "lố": 5694,
      "lử": 5695,
      "lôm": 5696,
      "lỉnh": 5697,
      "lịnh": 5698,
      "liểu": 5699,
      "mềnh": 5700,
      "pôn": 5701,
      "pằng": 5702,
      "rế": 5703,
      "rò": 5704,
      "rỗ": 5705,
      "rôi": 5706,
      "rềnh": 5707,
      "rụa": 5708,
      "sù": 5709,
      "sạ": 5710,
      "sỏ": 5711,
      "sọt": 5712,
      "tở": 5713,
      "tời": 5714,
      "tược": 5715,
      "tút": 5716,
      "tịt": 5717,
      "uột": 5718,
      "uỳnh": 5719,
      "vế": 5720,
      "vằm": 5721,
      "xắc": 5722,
      "xăn": 5723,
      "úm": 5724,
      "đươm": 5725,
      "ồi": 5726,
      "##oc": 5727,
      "##úy": 5728,
      "##ẳt": 5729,
      "##￼￼": 5730,
      "thới": 5731,
      "thọc": 5732,
      "thạnh": 5733,
      "thiển": 5734,
      "thườn": 5735,
      "thiến": 5736,
      "chặc": 5737,
      "ngửng": 5738,
      "trờ": 5739,
      "nhò": 5740,
      "nhuy": 5741,
      "nhùi": 5742,
      "nhột": 5743,
      "nhặn": 5744,
      "giêu": 5745,
      "giầm": 5746,
      "khái": 5747,
      "khâng": 5748,
      "khạng": 5749,
      "khiếm": 5750,
      "khướu": 5751,
      "quày": 5752,
      "phông": 5753,
      "phảy": 5754,
      "hoai": 5755,
      "xuề": 5756,
      "chin": 5757,
      "cuộng": 5758,
      "tiếm": 5759,
      "gìa": 5760,
      "thều": 5761,
      "chuôm": 5762,
      "tỏn": 5763,
      "seine": 5764,
      "độp": 5765,
      "truốt": 5766,
      "nhoè": 5767,
      "ghếch": 5768,
      "rộp": 5769,
      "chổm": 5770,
      "méc": 5771,
      "faay": 5772,
      "líp": 5773,
      "nhuyễn": 5774,
      "bốt": 5775,
      "bèm": 5776,
      "bùm": 5777,
      "cấn": 5778,
      "don": 5779,
      "diệm": 5780,
      "dỏm": 5781,
      "gộp": 5782,
      "hóc": 5783,
      "hịch": 5784,
      "lé": 5785,
      "luy": 5786,
      "lôn": 5787,
      "lặp": 5788,
      "lởi": 5789,
      "lậu": 5790,
      "lốm": 5791,
      "mệ": 5792,
      "nỗ": 5793,
      "nả": 5794,
      "nành": 5795,
      "nơng": 5796,
      "rún": 5797,
      "rướn": 5798,
      "sọ": 5799,
      "sơm": 5800,
      "sùm": 5801,
      "sẩm": 5802,
      "tiệt": 5803,
      "vảy": 5804,
      "vửng": 5805,
      "vưỡn": 5806,
      "xộn": 5807,
      "đợ": 5808,
      "đẵm": 5809,
      "##ck": 5810,
      "##ờng": 5811,
      "##ơc": 5812,
      "##ĩa": 5813,
      "##ọe": 5814,
      "##st": 5815,
      "thừ": 5816,
      "chặp": 5817,
      "chẫu": 5818,
      "chọe": 5819,
      "ngão": 5820,
      "ngẩy": 5821,
      "ngằn": 5822,
      "tron": 5823,
      "tréo": 5824,
      "nhép": 5825,
      "khống": 5826,
      "##ươì": 5827,
      "phẫn": 5828,
      "phạn": 5829,
      "nghển": 5830,
      "nhớt": 5831,
      "đểu": 5832,
      "##iểng": 5833,
      "loe": 5834,
      "toái": 5835,
      "ngoắc": 5836,
      "huơng": 5837,
      "noãn": 5838,
      "soa": 5839,
      "soán": 5840,
      "khía": 5841,
      "mụn": 5842,
      "sàm": 5843,
      "lổm": 5844,
      "đởn": 5845,
      "xòang": 5846,
      "biêu": 5847,
      "bậm": 5848,
      "biễn": 5849,
      "bẹo": 5850,
      "bươu": 5851,
      "dêm": 5852,
      "dớt": 5853,
      "dõng": 5854,
      "el": 5855,
      "fan": 5856,
      "gon": 5857,
      "gáng": 5858,
      "gằn": 5859,
      "hự": 5860,
      "hinh": 5861,
      "hấu": 5862,
      "hơm": 5863,
      "hảnh": 5864,
      "hẵng": 5865,
      "hõm": 5866,
      "juy": 5867,
      "ké": 5868,
      "lổi": 5869,
      "lin": 5870,
      "lẹo": 5871,
      "lẹt": 5872,
      "lắk": 5873,
      "mú": 5874,
      "mỉ": 5875,
      "mọ": 5876,
      "miềm": 5877,
      "mầng": 5878,
      "mếu": 5879,
      "nì": 5880,
      "rí": 5881,
      "rấm": 5882,
      "rặt": 5883,
      "rặn": 5884,
      "sí": 5885,
      "sl": 5886,
      "sênh": 5887,
      "săc": 5888,
      "tứa": 5889,
      "tểnh": 5890,
      "tõm": 5891,
      "uấn": 5892,
      "uớc": 5893,
      "vọc": 5894,
      "váo": 5895,
      "vện": 5896,
      "wa": 5897,
      "xon": 5898,
      "xiền": 5899,
      "xùi": 5900,
      "xãy": 5901,
      "xúp": 5902,
      "xịch": 5903,
      "xuyết": 5904,
      "zai": 5905,
      "zan": 5906,
      "ão": 5907,
      "đân": 5908,
      "đôm": 5909,
      "đĩnh": 5910,
      "đũng": 5911,
      "đặm": 5912,
      "ạch": 5913,
      "ắc": 5914,
      "ỏng": 5915,
      "##ii": 5916,
      "##ãm": 5917,
      "##ôc": 5918,
      "##êt": 5919,
      "##ỵu": 5920,
      "thược": 5921,
      "thin": 5922,
      "thằn": 5923,
      "thiểu": 5924,
      "thãm": 5925,
      "ché": 5926,
      "chọt": 5927,
      "chằn": 5928,
      "ngồ": 5929,
      "ngòn": 5930,
      "ngóp": 5931,
      "ngọa": 5932,
      "trằng": 5933,
      "nhon": 5934,
      "nhâu": 5935,
      "nhền": 5936,
      "nhin": 5937,
      "nhạo": 5938,
      "nhom": 5939,
      "nhít": 5940,
      "nhiếc": 5941,
      "giâng": 5942,
      "giễu": 5943,
      "khạc": 5944,
      "kháu": 5945,
      "khem": 5946,
      "kháo": 5947,
      "khẩy": 5948,
      "khòm": 5949,
      "quo": 5950,
      "quệ": 5951,
      "phon": 5952,
      "phôn": 5953,
      "phắc": 5954,
      "phẫu": 5955,
      "choi": 5956,
      "xuông": 5957,
      "cum": 5958,
      "cuôc": 5959,
      "tuý": 5960,
      "ghẹ": 5961,
      "ghình": 5962,
      "luông": 5963,
      "loen": 5964,
      "loạng": 5965,
      "vợt": 5966,
      "kiêm": 5967,
      "khuếch": 5968,
      "khuỵu": 5969,
      "đỏm": 5970,
      "toanh": 5971,
      "nuớc": 5972,
      "đủi": 5973,
      "bim": 5974,
      "thùm": 5975,
      "cor": 5976,
      "trum": 5977,
      "bộp": 5978,
      "phún": 5979,
      "nàm": 5980,
      "nhoạng": 5981,
      "book": 5982,
      "vạy": 5983,
      "goá": 5984,
      "bye": 5985,
      "bủn": 5986,
      "bớ": 5987,
      "bươi": 5988,
      "bựa": 5989,
      "dừ": 5990,
      "dd": 5991,
      "dắng": 5992,
      "dóng": 5993,
      "doi": 5994,
      "dướn": 5995,
      "gô": 5996,
      "gú": 5997,
      "hụ": 5998,
      "hiêu": 5999,
      "kiềm": 6000,
      "kỉnh": 6001,
      "mảy": 6002,
      "mứa": 6003,
      "nọc": 6004,
      "nớp": 6005,
      "po": 6006,
      "pi": 6007,
      "rọc": 6008,
      "rảng": 6009,
      "sây": 6010,
      "sới": 6011,
      "sọc": 6012,
      "tộ": 6013,
      "tễ": 6014,
      "tòai": 6015,
      "tẽn": 6016,
      "xờ": 6017,
      "xạt": 6018,
      "xởi": 6019,
      "xốc": 6020,
      "xẹt": 6021,
      "đẩ": 6022,
      "đới": 6023,
      "ọp": 6024,
      "##âù": 6025,
      "thàng": 6026,
      "thết": 6027,
      "chẽ": 6028,
      "chời": 6029,
      "chệch": 6030,
      "ngốn": 6031,
      "trư": 6032,
      "nhây": 6033,
      "nhách": 6034,
      "giẻ": 6035,
      "giân": 6036,
      "giát": 6037,
      "quèo": 6038,
      "phướn": 6039,
      "phều": 6040,
      "hoả": 6041,
      "hoắt": 6042,
      "đển": 6043,
      "cũi": 6044,
      "muà": 6045,
      "ghập": 6046,
      "lun": 6047,
      "tỏng": 6048,
      "nui": 6049,
      "miu": 6050,
      "bển": 6051,
      "phụt": 6052,
      "doạ": 6053,
      "phui": 6054,
      "soạt": 6055,
      "giếc": 6056,
      "lòan": 6057,
      "nick": 6058,
      "húy": 6059,
      "mủm": 6060,
      "lủy": 6061,
      "tởm": 6062,
      "post": 6063,
      "đẩt": 6064,
      "bứa": 6065,
      "bợn": 6066,
      "bẹt": 6067,
      "bũa": 6068,
      "cạ": 6069,
      "cợi": 6070,
      "cữu": 6071,
      "dến": 6072,
      "dẩn": 6073,
      "diệc": 6074,
      "diếm": 6075,
      "dâp": 6076,
      "fi": 6077,
      "gờ": 6078,
      "gường": 6079,
      "gìm": 6080,
      "gằm": 6081,
      "goi": 6082,
      "gép": 6083,
      "gủi": 6084,
      "húng": 6085,
      "háu": 6086,
      "hin": 6087,
      "húi": 6088,
      "hún": 6089,
      "hếch": 6090,
      "kôn": 6091,
      "lức": 6092,
      "lằm": 6093,
      "lậm": 6094,
      "lúp": 6095,
      "lưởi": 6096,
      "mế": 6097,
      "mg": 6098,
      "mừ": 6099,
      "mem": 6100,
      "múp": 6101,
      "mẳn": 6102,
      "miểng": 6103,
      "nầm": 6104,
      "nớt": 6105,
      "ních": 6106,
      "nẹt": 6107,
      "nươc": 6108,
      "pó": 6109,
      "pr": 6110,
      "pan": 6111,
      "păng": 6112,
      "pác": 6113,
      "qúy": 6114,
      "rợ": 6115,
      "ron": 6116,
      "rận": 6117,
      "rỏi": 6118,
      "rúng": 6119,
      "rậu": 6120,
      "rom": 6121,
      "rửng": 6122,
      "rườm": 6123,
      "sữ": 6124,
      "sấn": 6125,
      "sạc": 6126,
      "sặt": 6127,
      "sòm": 6128,
      "sộp": 6129,
      "tồ": 6130,
      "tiệp": 6131,
      "tướp": 6132,
      "vọ": 6133,
      "wi": 6134,
      "xẽ": 6135,
      "xổi": 6136,
      "xống": 6137,
      "xiêng": 6138,
      "xém": 6139,
      "xụp": 6140,
      "xỉu": 6141,
      "yể": 6142,
      "zê": 6143,
      "zin": 6144,
      "ài": 6145,
      "đư": 6146,
      "đạ": 6147,
      "đên": 6148,
      "đẵn": 6149,
      "đụt": 6150,
      "ẫm": 6151,
      "ẳm": 6152,
      "ỉm": 6153,
      "ừa": 6154,
      "ực": 6155,
      "##ot": 6156,
      "##rl": 6157,
      "thài": 6158,
      "thõa": 6159,
      "chộ": 6160,
      "chàn": 6161,
      "chảng": 6162,
      "chèm": 6163,
      "chệnh": 6164,
      "chũng": 6165,
      "ngáng": 6166,
      "ngươì": 6167,
      "trĩ": 6168,
      "tray": 6169,
      "triêng": 6170,
      "nhợ": 6171,
      "nhồn": 6172,
      "nhọt": 6173,
      "nhẹp": 6174,
      "nhản": 6175,
      "nhộm": 6176,
      "nhẩu": 6177,
      "nhảm": 6178,
      "nhểu": 6179,
      "nhiểu": 6180,
      "giẽ": 6181,
      "giơi": 6182,
      "giấm": 6183,
      "khừ": 6184,
      "khong": 6185,
      "khắm": 6186,
      "khọt": 6187,
      "khấm": 6188,
      "khựa": 6189,
      "quẹn": 6190,
      "quéo": 6191,
      "##ona": 6192,
      "điệt": 6193,
      "ngho": 6194,
      "nghịt": 6195,
      "nhớn": 6196,
      "cáu": 6197,
      "thuong": 6198,
      "chiểu": 6199,
      "tiu": 6200,
      "cup": 6201,
      "muỗng": 6202,
      "muỗm": 6203,
      "ruỗng": 6204,
      "ruộm": 6205,
      "bar": 6206,
      "côm": 6207,
      "luá": 6208,
      "luc": 6209,
      "loăn": 6210,
      "khoắng": 6211,
      "đoai": 6212,
      "toé": 6213,
      "toạ": 6214,
      "toẹt": 6215,
      "nguỵ": 6216,
      "nguòi": 6217,
      "ngoác": 6218,
      "ngoáy": 6219,
      "hạm": 6220,
      "kít": 6221,
      "duới": 6222,
      "hum": 6223,
      "noái": 6224,
      "noọng": 6225,
      "tràu": 6226,
      "rủn": 6227,
      "rũa": 6228,
      "tếch": 6229,
      "ngưòi": 6230,
      "phởn": 6231,
      "lúy": 6232,
      "ngừoi": 6233,
      "dzô": 6234,
      "ngỗn": 6235,
      "shi": 6236,
      "sli": 6237,
      "corona": 6238,
      "bư": 6239,
      "báng": 6240,
      "bệt": 6241,
      "báy": 6242,
      "bủng": 6243,
      "cồm": 6244,
      "dánh": 6245,
      "dớn": 6246,
      "gườm": 6247,
      "hứ": 6248,
      "hậm": 6249,
      "háy": 6250,
      "kông": 6251,
      "lợ": 6252,
      "lổng": 6253,
      "lém": 6254,
      "mỗ": 6255,
      "mẫy": 6256,
      "miễu": 6257,
      "măc": 6258,
      "nứ": 6259,
      "niền": 6260,
      "nõi": 6261,
      "rư": 6262,
      "rịm": 6263,
      "sốc": 6264,
      "sẻo": 6265,
      "sột": 6266,
      "sứng": 6267,
      "tằng": 6268,
      "tĩu": 6269,
      "tềnh": 6270,
      "vố": 6271,
      "xằng": 6272,
      "xẹp": 6273,
      "xiếc": 6274,
      "yêm": 6275,
      "áy": 6276,
      "đoi": 6277,
      "ềnh": 6278,
      "##kh": 6279,
      "thât": 6280,
      "thâý": 6281,
      "chấy": 6282,
      "chườm": 6283,
      "ngãng": 6284,
      "ngụt": 6285,
      "trênh": 6286,
      "trịt": 6287,
      "nhặng": 6288,
      "nhèo": 6289,
      "nhụa": 6290,
      "gim": 6291,
      "gin": 6292,
      "giấn": 6293,
      "khắng": 6294,
      "khúm": 6295,
      "khựng": 6296,
      "nghơi": 6297,
      "nghến": 6298,
      "nghiêu": 6299,
      "nghêng": 6300,
      "nghẻo": 6301,
      "choè": 6302,
      "hoè": 6303,
      "hoác": 6304,
      "xuộm": 6305,
      "thuả": 6306,
      "thuấn": 6307,
      "thuớt": 6308,
      "tiễng": 6309,
      "muồi": 6310,
      "##enn": 6311,
      "láu": 6312,
      "##iểm": 6313,
      "cứt": 6314,
      "loé": 6315,
      "loè": 6316,
      "nục": 6317,
      "khoạng": 6318,
      "kiu": 6319,
      "lỡm": 6320,
      "đuờng": 6321,
      "xoang": 6322,
      "tròi": 6323,
      "quýnh": 6324,
      "chởm": 6325,
      "nghỉm": 6326,
      "trui": 6327,
      "soạp": 6328,
      "ngộp": 6329,
      "lởm": 6330,
      "đơị": 6331,
      "đọan": 6332,
      "##­­­­": 6333,
      "ngổm": 6334,
      "prenn": 6335,
      "bâ": 6336,
      "bā": 6337,
      "bẳng": 6338,
      "bem": 6339,
      "bỉnh": 6340,
      "bĩnh": 6341,
      "bĩu": 6342,
      "bẩu": 6343,
      "bợt": 6344,
      "bệch": 6345,
      "cc": 6346,
      "cõ": 6347,
      "cẳt": 6348,
      "dặng": 6349,
      "dọng": 6350,
      "dáu": 6351,
      "dắn": 6352,
      "diu": 6353,
      "diếp": 6354,
      "dẹo": 6355,
      "dũi": 6356,
      "diểm": 6357,
      "gề": 6358,
      "gâm": 6359,
      "gôm": 6360,
      "gỏng": 6361,
      "gẩm": 6362,
      "hỡ": 6363,
      "hử": 6364,
      "háng": 6365,
      "hộc": 6366,
      "hèo": 6367,
      "hóp": 6368,
      "hẵn": 6369,
      "hẩng": 6370,
      "iêm": 6371,
      "kà": 6372,
      "lúi": 6373,
      "lơm": 6374,
      "lờn": 6375,
      "liến": 6376,
      "lứt": 6377,
      "lồm": 6378,
      "lặm": 6379,
      "lếch": 6380,
      "line": 6381,
      "mố": 6382,
      "mỷ": 6383,
      "mễ": 6384,
      "miến": 6385,
      "mính": 6386,
      "mẩm": 6387,
      "mỡn": 6388,
      "mẳt": 6389,
      "nây": 6390,
      "nới": 6391,
      "nèo": 6392,
      "niếm": 6393,
      "nẽn": 6394,
      "oại": 6395,
      "pu": 6396,
      "pí": 6397,
      "pê": 6398,
      "qo": 6399,
      "qúi": 6400,
      "rọt": 6401,
      "rọng": 6402,
      "rin": 6403,
      "ròai": 6404,
      "rịt": 6405,
      "rướt": 6406,
      "rổng": 6407,
      "rựa": 6408,
      "riếc": 6409,
      "rụm": 6410,
      "ròm": 6411,
      "sồ": 6412,
      "sệ": 6413,
      "sến": 6414,
      "sái": 6415,
      "sệt": 6416,
      "sịn": 6417,
      "súm": 6418,
      "sẩu": 6419,
      "sụn": 6420,
      "tẩn": 6421,
      "tém": 6422,
      "tễu": 6423,
      "uá": 6424,
      "vỉ": 6425,
      "vửa": 6426,
      "wo": 6427,
      "xệ": 6428,
      "xời": 6429,
      "xầu": 6430,
      "xồn": 6431,
      "xất": 6432,
      "xoi": 6433,
      "xép": 6434,
      "xẫm": 6435,
      "êu": 6436,
      "đy": 6437,
      "đẵ": 6438,
      "đử": 6439,
      "đọn": 6440,
      "ơm": 6441,
      "ẹp": 6442,
      "ẻn": 6443,
      "ỏn": 6444,
      "ừng": 6445,
      "##mg": 6446,
      "##rk": 6447,
      "##ủy": 6448,
      "##et": 6449,
      "##ơt": 6450,
      "##ĩm": 6451,
      "##ọm": 6452,
      "##ve": 6453,
      "thẽ": 6454,
      "thiếc": 6455,
      "thụp": 6456,
      "chét": 6457,
      "chẳn": 6458,
      "chẽn": 6459,
      "ngù": 6460,
      "nge": 6461,
      "ngạ": 6462,
      "ngêu": 6463,
      "ngòng": 6464,
      "ngắc": 6465,
      "ngỏng": 6466,
      "ngươn": 6467,
      "ngùn": 6468,
      "ngịu": 6469,
      "ngòm": 6470,
      "trã": 6471,
      "trứ": 6472,
      "trêm": 6473,
      "trạo": 6474,
      "trúm": 6475,
      "trẹo": 6476,
      "nhề": 6477,
      "giổ": 6478,
      "gie": 6479,
      "giất": 6480,
      "giùng": 6481,
      "giỗi": 6482,
      "giảo": 6483,
      "giệt": 6484,
      "giẩu": 6485,
      "khơ": 6486,
      "khùa": 6487,
      "khắn": 6488,
      "khưu": 6489,
      "khìa": 6490,
      "khọm": 6491,
      "quợ": 6492,
      "quăm": 6493,
      "quài": 6494,
      "quắn": 6495,
      "quặt": 6496,
      "quèn": 6497,
      "quạch": 6498,
      "phắt": 6499,
      "pheo": 6500,
      "phin": 6501,
      "phực": 6502,
      "phỗng": 6503,
      "phịu": 6504,
      "lạo": 6505,
      "nghẹt": 6506,
      "nghẽo": 6507,
      "hoáy": 6508,
      "xuể": 6509,
      "xuôn": 6510,
      "buân": 6511,
      "giói": 6512,
      "thuổ": 6513,
      "thuột": 6514,
      "vuôn": 6515,
      "mơm": 6516,
      "cuấn": 6517,
      "cuỗm": 6518,
      "tuơi": 6519,
      "mặm": 6520,
      "runh": 6521,
      "##iểt": 6522,
      "lonh": 6523,
      "khoen": 6524,
      "khoèo": 6525,
      "đòm": 6526,
      "chịch": 6527,
      "nhẹm": 6528,
      "quyét": 6529,
      "cỏm": 6530,
      "nhỏm": 6531,
      "phốp": 6532,
      "laị": 6533,
      "đoảng": 6534,
      "thờn": 6535,
      "hạch": 6536,
      "mùn": 6537,
      "xoảng": 6538,
      "biếm": 6539,
      "cờn": 6540,
      "sea": 6541,
      "thỏang": 6542,
      "dởm": 6543,
      "tòang": 6544,
      "huầy": 6545,
      "nỡm": 6546,
      "nghỉu": 6547,
      "bồm": 6548,
      "rũi": 6549,
      "truội": 6550,
      "hều": 6551,
      "soay": 6552,
      "nhip": 6553,
      "lòm": 6554,
      "gat": 6555,
      "nhoằng": 6556,
      "nhoèn": 6557,
      "vãnh": 6558,
      "sởn": 6559,
      "val": 6560,
      "him": 6561,
      "khứu": 6562,
      "lưá": 6563,
      "park": 6564,
      "sàu": 6565,
      "teen": 6566,
      "đờm": 6567,
      "nghịên": 6568,
      "chưn": 6569,
      "búk": 6570,
      "híp": 6571,
      "reng": 6572,
      "phèng": 6573,
      "súy": 6574,
      "giot": 6575,
      "cãm": 6576,
      "rơp": 6577,
      "games": 6578,
      "wave": 6579,
      "phone": 6580,
      "trump": 6581,
      "yểm": 6582,
      "nghoảnh": 6583,
      "bāo": 6584,
      "bắng": 6585,
      "bọng": 6586,
      "bép": 6587,
      "bụp": 6588,
      "bướu": 6589,
      "cớm": 6590,
      "dử": 6591,
      "dắc": 6592,
      "dáy": 6593,
      "dón": 6594,
      "dĩnh": 6595,
      "dộp": 6596,
      "gẫu": 6597,
      "hĩnh": 6598,
      "lửu": 6599,
      "lâý": 6600,
      "máo": 6601,
      "mạp": 6602,
      "nen": 6603,
      "nạc": 6604,
      "oằng": 6605,
      "oăn": 6606,
      "qùa": 6607,
      "rúi": 6608,
      "rão": 6609,
      "sớn": 6610,
      "têu": 6611,
      "tợn": 6612,
      "tiềng": 6613,
      "vọi": 6614,
      "vẩu": 6615,
      "xân": 6616,
      "xồng": 6617,
      "xường": 6618,
      "xườn": 6619,
      "xiu": 6620,
      "đừa": 6621,
      "đượng": 6622,
      "ầng": 6623,
      "ậc": 6624,
      "ọe": 6625,
      "ởm": 6626,
      "ủn": 6627,
      "️t": 6628,
      "️kh": 6629,
      "##hi": 6630,
      "##ui": 6631,
      "##ưã": 6632,
      "##ỗn": 6633,
      "##ỵch": 6634,
      "thèo": 6635,
      "thùi": 6636,
      "thiềng": 6637,
      "chạn": 6638,
      "chách": 6639,
      "chưởi": 6640,
      "tré": 6641,
      "trệ": 6642,
      "trự": 6643,
      "trày": 6644,
      "trằm": 6645,
      "trốc": 6646,
      "trặc": 6647,
      "nhần": 6648,
      "nhải": 6649,
      "nhén": 6650,
      "nhịt": 6651,
      "nhủi": 6652,
      "nhốm": 6653,
      "nhựt": 6654,
      "giảnh": 6655,
      "giẫy": 6656,
      "giưã": 6657,
      "khần": 6658,
      "quào": 6659,
      "quải": 6660,
      "quác": 6661,
      "phiệt": 6662,
      "nghiễm": 6663,
      "hoét": 6664,
      "xuẩn": 6665,
      "nhưỡng": 6666,
      "đãm": 6667,
      "đãy": 6668,
      "chién": 6669,
      "tiêng": 6670,
      "cuả": 6671,
      "mum": 6672,
      "tuối": 6673,
      "mail": 6674,
      "tíc": 6675,
      "luu": 6676,
      "luý": 6677,
      "chiếp": 6678,
      "chuồi": 6679,
      "suơng": 6680,
      "nuộc": 6681,
      "thủơ": 6682,
      "dun": 6683,
      "xoen": 6684,
      "xoét": 6685,
      "nhuốt": 6686,
      "huốt": 6687,
      "huỵch": 6688,
      "doãn": 6689,
      "nghỉa": 6690,
      "kếch": 6691,
      "xẻng": 6692,
      "lọm": 6693,
      "gíá": 6694,
      "mủn": 6695,
      "dzui": 6696,
      "dep": 6697,
      "️không": 6698,
      "bb": 6699,
      "ben": 6700,
      "bỏi": 6701,
      "bíu": 6702,
      "bằn": 6703,
      "bửng": 6704,
      "biềng": 6705,
      "băt": 6706,
      "biểt": 6707,
      "cùa": 6708,
      "cọt": 6709,
      "cươi": 6710,
      "cạc": 6711,
      "cẩy": 6712,
      "cẩng": 6713,
      "dâ": 6714,
      "dá": 6715,
      "dợ": 6716,
      "dẽ": 6717,
      "dồng": 6718,
      "dới": 6719,
      "dọt": 6720,
      "dữa": 6721,
      "dỏi": 6722,
      "diêng": 6723,
      "dam": 6724,
      "dộng": 6725,
      "diển": 6726,
      "dít": 6727,
      "dụt": 6728,
      "dín": 6729,
      "eng": 6730,
      "fờ": 6731,
      "fai": 6732,
      "fau": 6733,
      "gó": 6734,
      "gị": 6735,
      "gy": 6736,
      "gĩ": 6737,
      "gùng": 6738,
      "gới": 6739,
      "gơn": 6740,
      "gữa": 6741,
      "gáp": 6742,
      "gĩa": 6743,
      "hể": 6744,
      "hày": 6745,
      "hới": 6746,
      "hền": 6747,
      "hập": 6748,
      "hảng": 6749,
      "hụi": 6750,
      "hóm": 6751,
      "hẫm": 6752,
      "hản": 6753,
      "hầng": 6754,
      "hếnh": 6755,
      "iên": 6756,
      "iểu": 6757,
      "ku": 6758,
      "kg": 6759,
      "kô": 6760,
      "kễ": 6761,
      "kạn": 6762,
      "kặp": 6763,
      "kiệp": 6764,
      "lỵ": 6765,
      "lãn": 6766,
      "mh": 6767,
      "mâ": 6768,
      "mư": 6769,
      "mự": 6770,
      "mửa": 6771,
      "măn": 6772,
      "miêng": 6773,
      "mấu": 6774,
      "mởi": 6775,
      "mấm": 6776,
      "mậm": 6777,
      "mườn": 6778,
      "mén": 6779,
      "mụi": 6780,
      "mõng": 6781,
      "móp": 6782,
      "mịa": 6783,
      "miễm": 6784,
      "mẽo": 6785,
      "miềng": 6786,
      "nị": 6787,
      "nư": 6788,
      "ne": 6789,
      "nò": 6790,
      "nẹ": 6791,
      "nĩ": 6792,
      "nỷ": 6793,
      "nē": 6794,
      "nân": 6795,
      "nòn": 6796,
      "nất": 6797,
      "nừng": 6798,
      "nọt": 6799,
      "nược": 6800,
      "nạo": 6801,
      "nưu": 6802,
      "nèm": 6803,
      "nẫm": 6804,
      "nằn": 6805,
      "nịch": 6806,
      "nổng": 6807,
      "nặm": 6808,
      "nủng": 6809,
      "nẫng": 6810,
      "of": 6811,
      "oam": 6812,
      "pù": 6813,
      "pe": 6814,
      "pì": 6815,
      "pao": 6816,
      "pạc": 6817,
      "qù": 6818,
      "rỳ": 6819,
      "rh": 6820,
      "rị": 6821,
      "ré": 6822,
      "rụ": 6823,
      "rớ": 6824,
      "rổi": 6825,
      "rìn": 6826,
      "rấp": 6827,
      "rặc": 6828,
      "rùm": 6829,
      "rốm": 6830,
      "rín": 6831,
      "rều": 6832,
      "rươu": 6833,
      "sr": 6834,
      "sủ": 6835,
      "sụ": 6836,
      "sỷ": 6837,
      "sồn": 6838,
      "sổi": 6839,
      "sọi": 6840,
      "sởi": 6841,
      "sịt": 6842,
      "sụi": 6843,
      "sặn": 6844,
      "sụm": 6845,
      "săt": 6846,
      "tỗ": 6847,
      "tòn": 6848,
      "tấy": 6849,
      "tỗi": 6850,
      "tọng": 6851,
      "túa": 6852,
      "tèn": 6853,
      "táy": 6854,
      "uỷ": 6855,
      "uơm": 6856,
      "uềnh": 6857,
      "uớp": 6858,
      "vầ": 6859,
      "vâu": 6860,
      "vầu": 6861,
      "vắc": 6862,
      "viu": 6863,
      "vổng": 6864,
      "we": 6865,
      "wang": 6866,
      "xy": 6867,
      "xự": 6868,
      "xĩ": 6869,
      "xêu": 6870,
      "xáng": 6871,
      "xắt": 6872,
      "xeo": 6873,
      "xút": 6874,
      "xôm": 6875,
      "xực": 6876,
      "xụi": 6877,
      "xịnh": 6878,
      "xớn": 6879,
      "xẩu": 6880,
      "xểnh": 6881,
      "xòm": 6882,
      "xúy": 6883,
      "yo": 6884,
      "yang": 6885,
      "yêng": 6886,
      "zd": 6887,
      "zọt": 6888,
      "ây": 6889,
      "ênh": 6890,
      "òang": 6891,
      "ót": 6892,
      "ôông": 6893,
      "đõ": 6894,
      "đèm": 6895,
      "đầng": 6896,
      "đẫng": 6897,
      "đợm": 6898,
      "ưỡ": 6899,
      "ưóc": 6900,
      "ườn": 6901,
      "ươc": 6902,
      "ại": 6903,
      "ếm": 6904,
      "ểnh": 6905,
      "ỉn": 6906,
      "ốp": 6907,
      "ụp": 6908,
      "ứơt": 6909,
      "️đ": 6910,
      "##ók": 6911,
      "##um": 6912,
      "##op": 6913,
      "##âc": 6914,
      "##yên": 6915,
      "##éng": 6916,
      "##ti": 6917,
      "##ớng": 6918,
      "##ổm": 6919,
      "##eu": 6920,
      "##el": 6921,
      "##eng": 6922,
      "##êù": 6923,
      "##ứu": 6924,
      "##bo": 6925,
      "##úo": 6926,
      "##ẹm": 6927,
      "##ẹc": 6928,
      "##ẳy": 6929,
      "##ăy": 6930,
      "##ằc": 6931,
      "##ũy": 6932,
      "thó": 6933,
      "thồn": 6934,
      "thát": 6935,
      "thọt": 6936,
      "thâng": 6937,
      "thộn": 6938,
      "thụng": 6939,
      "thột": 6940,
      "thỏng": 6941,
      "thũng": 6942,
      "thẹo": 6943,
      "thẵng": 6944,
      "thẵm": 6945,
      "chõ": 6946,
      "chũ": 6947,
      "chôi": 6948,
      "chòn": 6949,
      "chúi": 6950,
      "chạo": 6951,
      "chẻo": 6952,
      "chớt": 6953,
      "chiệu": 6954,
      "chộm": 6955,
      "chĩnh": 6956,
      "chụt": 6957,
      "chăc": 6958,
      "ngau": 6959,
      "ngận": 6960,
      "ngưới": 6961,
      "ngún": 6962,
      "ngạy": 6963,
      "trể": 6964,
      "trẳng": 6965,
      "trài": 6966,
      "triên": 6967,
      "trôm": 6968,
      "trét": 6969,
      "triễu": 6970,
      "trển": 6971,
      "trẩu": 6972,
      "triềng": 6973,
      "trùn": 6974,
      "trõm": 6975,
      "nhòn": 6976,
      "nhắng": 6977,
      "nhãi": 6978,
      "nhóa": 6979,
      "nhẻo": 6980,
      "nhèn": 6981,
      "nhẫm": 6982,
      "nhặc": 6983,
      "nhụt": 6984,
      "nhồm": 6985,
      "nhẳn": 6986,
      "nhều": 6987,
      "nhẻm": 6988,
      "giu": 6989,
      "giô": 6990,
      "giạ": 6991,
      "giỡ": 6992,
      "giào": 6993,
      "giâm": 6994,
      "giốc": 6995,
      "giưới": 6996,
      "giủi": 6997,
      "giợn": 6998,
      "giúo": 6999,
      "khộ": 7000,
      "khē": 7001,
      "khào": 7002,
      "khồng": 7003,
      "khòng": 7004,
      "khăm": 7005,
      "khõi": 7006,
      "khứng": 7007,
      "khạp": 7008,
      "khệu": 7009,
      "khệch": 7010,
      "quị": 7011,
      "quến": 7012,
      "quàn": 7013,
      "quạc": 7014,
      "phệ": 7015,
      "phiều": 7016,
      "phọt": 7017,
      "phẩn": 7018,
      "phởi": 7019,
      "phệt": 7020,
      "phạch": 7021,
      "mộmg": 7022,
      "điêng": 7023,
      "điễm": 7024,
      "nghế": 7025,
      "nghễnh": 7026,
      "taù": 7027,
      "hoạnh": 7028,
      "xuần": 7029,
      "cóa": 7030,
      "đãnh": 7031,
      "buốn": 7032,
      "buớm": 7033,
      "thuên": 7034,
      "thuẩn": 7035,
      "thuộm": 7036,
      "thuỏng": 7037,
      "chiêc": 7038,
      "cuời": 7039,
      "cuồi": 7040,
      "ơiii": 7041,
      "muời": 7042,
      "muổi": 7043,
      "muợn": 7044,
      "giờn": 7045,
      "tuồi": 7046,
      "nghĩnh": 7047,
      "vìu": 7048,
      "vìa": 7049,
      "ghồng": 7050,
      "ghành": 7051,
      "ghớm": 7052,
      "ghính": 7053,
      "luạ": 7054,
      "luột": 7055,
      "luộm": 7056,
      "luợn": 7057,
      "loá": 7058,
      "loảng": 7059,
      "loằn": 7060,
      "kiếu": 7061,
      "khoi": 7062,
      "khoeo": 7063,
      "thoan": 7064,
      "thoắng": 7065,
      "chuệnh": 7066,
      "tỏm": 7067,
      "chía": 7068,
      "kià": 7069,
      "quyễn": 7070,
      "nhỏng": 7071,
      "mờm": 7072,
      "đàu": 7073,
      "khuỳnh": 7074,
      "lac": 7075,
      "kẻn": 7076,
      "khuyê": 7077,
      "nguây": 7078,
      "nguần": 7079,
      "nguộn": 7080,
      "nun": 7081,
      "nuôn": 7082,
      "ngoc": 7083,
      "ngot": 7084,
      "ngoạ": 7085,
      "ngoay": 7086,
      "ngoạp": 7087,
      "thit": 7088,
      "nợn": 7089,
      "giáy": 7090,
      "đuổm": 7091,
      "tine": 7092,
      "kíu": 7093,
      "xoê": 7094,
      "xoai": 7095,
      "xoãi": 7096,
      "daĩ": 7097,
      "trảm": 7098,
      "thanb": 7099,
      "nhuộn": 7100,
      "biang": 7101,
      "biét": 7102,
      "biêt": 7103,
      "phíp": 7104,
      "phính": 7105,
      "sẻn": 7106,
      "đềnh": 7107,
      "lễnh": 7108,
      "dựu": 7109,
      "lơng": 7110,
      "béc": 7111,
      "hui": 7112,
      "huong": 7113,
      "huen": 7114,
      "noel": 7115,
      "xếnh": 7116,
      "kều": 7117,
      "nắmg": 7118,
      "tứt": 7119,
      "doán": 7120,
      "lip": 7121,
      "phum": 7122,
      "nguyen": 7123,
      "diù": 7124,
      "chuyếnh": 7125,
      "truóc": 7126,
      "huyênh": 7127,
      "huyển": 7128,
      "giãm": 7129,
      "nghều": 7130,
      "soong": 7131,
      "soắn": 7132,
      "soạng": 7133,
      "víp": 7134,
      "mòm": 7135,
      "nhoa": 7136,
      "nhoe": 7137,
      "nhoong": 7138,
      "nhoen": 7139,
      "nhoẽn": 7140,
      "tếng": 7141,
      "mãu": 7142,
      "##ươmg": 7143,
      "kếp": 7144,
      "vĩa": 7145,
      "trụa": 7146,
      "nọong": 7147,
      "đẻn": 7148,
      "giởn": 7149,
      "vỏn": 7150,
      "mỏn": 7151,
      "mỏnh": 7152,
      "rôì": 7153,
      "hip": 7154,
      "rểnh": 7155,
      "xich": 7156,
      "boa": 7157,
      "booc": 7158,
      "mẻm": 7159,
      "teng": 7160,
      "téc": 7161,
      "khỉu": 7162,
      "nỏn": 7163,
      "beng": 7164,
      "nhím": 7165,
      "đừong": 7166,
      "đừờng": 7167,
      "khòang": 7168,
      "hỗm": 7169,
      "facee": 7170,
      "lèng": 7171,
      "tẻm": 7172,
      "dzợ": 7173,
      "dzưng": 7174,
      "dzìa": 7175,
      "hừm": 7176,
      "gioa": 7177,
      "xuyển": 7178,
      "nờm": 7179,
      "fei": 7180,
      "xòan": 7181,
      "shop": 7182,
      "##￼￼￼￼": 7183,
      "nhòang": 7184,
      "síp": 7185,
      "quoá": 7186,
      "quoanh": 7187,
      "going": 7188,
      "##rld": 7189,
      "bưồn": 7190,
      "bâì": 7191,
      "cõn": 7192,
      "world": 7193,
      "trúmp": 7194,
      "valen": 7195,
      "gịot": 7196,
      "gym": 7197,
      "nēo": 7198,
      "off": 7199,
      "qùy": 7200,
      "srók": 7201,
      "sủu": 7202,
      "xĩn": 7203,
      "ưỡm": 7204,
      "al": 7205,
      "bứ": 7206,
      "biề": 7207,
      "bộng": 7208,
      "bườm": 7209,
      "cổi": 7210,
      "dó": 7211,
      "diền": 7212,
      "dực": 7213,
      "dượt": 7214,
      "dủi": 7215,
      "gồi": 7216,
      "gồn": 7217,
      "gếnh": 7218,
      "hm": 7219,
      "hườn": 7220,
      "hệnh": 7221,
      "hiếng": 7222,
      "hựu": 7223,
      "jo": 7224,
      "jun": 7225,
      "kiển": 7226,
      "lị": 7227,
      "ll": 7228,
      "lếu": 7229,
      "lỉa": 7230,
      "lợm": 7231,
      "mấn": 7232,
      "mếm": 7233,
      "mếch": 7234,
      "nù": 7235,
      "nột": 7236,
      "niếc": 7237,
      "oéo": 7238,
      "oắn": 7239,
      "pá": 7240,
      "qủy": 7241,
      "ry": 7242,
      "rự": 7243,
      "rē": 7244,
      "rắng": 7245,
      "rấn": 7246,
      "riếu": 7247,
      "rươm": 7248,
      "rựng": 7249,
      "só": 7250,
      "sộ": 7251,
      "sêu": 7252,
      "sằm": 7253,
      "sửi": 7254,
      "sỏng": 7255,
      "tọt": 7256,
      "tẹp": 7257,
      "tạch": 7258,
      "vộ": 7259,
      "whi": 7260,
      "xư": 7261,
      "xẹ": 7262,
      "xs": 7263,
      "xững": 7264,
      "xán": 7265,
      "xớt": 7266,
      "xảm": 7267,
      "xía": 7268,
      "đự": 7269,
      "đêu": 7270,
      "đât": 7271,
      "đâù": 7272,
      "ơng": 7273,
      "ười": 7274,
      "сố": 7275,
      "ắm": 7276,
      "ủa": 7277,
      "ứơc": 7278,
      "️c": 7279,
      "##rông": 7280,
      "##te": 7281,
      "##ợu": 7282,
      "##ởc": 7283,
      "##ănh": 7284,
      "thặng": 7285,
      "thạt": 7286,
      "thũy": 7287,
      "chĩa": 7288,
      "chănh": 7289,
      "ngứ": 7290,
      "ngường": 7291,
      "ngung": 7292,
      "trộ": 7293,
      "trũ": 7294,
      "trội": 7295,
      "trẫy": 7296,
      "trửu": 7297,
      "trrông": 7298,
      "nhồng": 7299,
      "nhậm": 7300,
      "nhụi": 7301,
      "gié": 7302,
      "giõi": 7303,
      "khuyệ": 7304,
      "khằn": 7305,
      "khủy": 7306,
      "quớc": 7307,
      "phớ": 7308,
      "phuy": 7309,
      "phìn": 7310,
      "phỏm": 7311,
      "nghách": 7312,
      "nghỗng": 7313,
      "nghểu": 7314,
      "choán": 7315,
      "choằn": 7316,
      "thơn": 7317,
      "xuốn": 7318,
      "cũn": 7319,
      "thuỵ": 7320,
      "chiêù": 7321,
      "tuỉ": 7322,
      "tuẫn": 7323,
      "tuởng": 7324,
      "tuơng": 7325,
      "gìờ": 7326,
      "gìơ": 7327,
      "rus": 7328,
      "ruợu": 7329,
      "time": 7330,
      "giàm": 7331,
      "loã": 7332,
      "loai": 7333,
      "chiếng": 7334,
      "kiễu": 7335,
      "khuẩy": 7336,
      "trẻn": 7337,
      "toản": 7338,
      "nguễn": 7339,
      "nguồm": 7340,
      "name": 7341,
      "ngoách": 7342,
      "ngoản": 7343,
      "##iễng": 7344,
      "thing": 7345,
      "thien": 7346,
      "nợp": 7347,
      "ngờm": 7348,
      "duẫn": 7349,
      "đak": 7350,
      "ngaỳ": 7351,
      "huỷ": 7352,
      "phuộc": 7353,
      "phuơng": 7354,
      "truất": 7355,
      "chủy": 7356,
      "soãi": 7357,
      "thửơ": 7358,
      "dòi": 7359,
      "củm": 7360,
      "củn": 7361,
      "nhoai": 7362,
      "nhoạt": 7363,
      "dãu": 7364,
      "tủy": 7365,
      "dza": 7366,
      "ngòam": 7367,
      "chùy": 7368,
      "rởn": 7369,
      "tởn": 7370,
      "luyênh": 7371,
      "ddường": 7372,
      "đưòng": 7373,
      "bưởc": 7374,
      "nứơc": 7375,
      "##­­­­­­­­": 7376,
      "luýnh": 7377,
      "dâụ": 7378,
      "biềt": 7379,
      "hmông": 7380,
      "job": 7381,
      "lliền": 7382,
      "white": 7383,
      "xsnh": 7384,
      "chănhr": 7385,
      "khuyệnh": 7386,
      "phuya": 7387,
      "aõ": 7388,
      "bỳ": 7389,
      "bặ": 7390,
      "bỗ": 7391,
      "bừ": 7392,
      "bầ": 7393,
      "bj": 7394,
      "bường": 7395,
      "bìn": 7396,
      "bót": 7397,
      "bạnh": 7398,
      "bưới": 7399,
      "bãy": 7400,
      "biệc": 7401,
      "bõng": 7402,
      "bẳm": 7403,
      "bượm": 7404,
      "bưỡi": 7405,
      "búm": 7406,
      "băc": 7407,
      "bâù": 7408,
      "bằc": 7409,
      "cị": 7410,
      "cp": 7411,
      "cr": 7412,
      "câ": 7413,
      "ci": 7414,
      "cế": 7415,
      "cê": 7416,
      "cl": 7417,
      "cồi": 7418,
      "cch": 7419,
      "cặng": 7420,
      "cức": 7421,
      "cọn": 7422,
      "cin": 7423,
      "cộn": 7424,
      "cẫu": 7425,
      "cíu": 7426,
      "cẫm": 7427,
      "ciu": 7428,
      "cộm": 7429,
      "cưởi": 7430,
      "cợn": 7431,
      "cẳn": 7432,
      "cỡn": 7433,
      "cẫng": 7434,
      "cợm": 7435,
      "cỉu": 7436,
      "cựt": 7437,
      "câp": 7438,
      "câù": 7439,
      "cbo": 7440,
      "căy": 7441,
      "dồ": 7442,
      "dủ": 7443,
      "dõ": 7444,
      "dứ": 7445,
      "dẵ": 7446,
      "dỉ": 7447,
      "diề": 7448,
      "dướ": 7449,
      "dau": 7450,
      "dước": 7451,
      "dắm": 7452,
      "dùa": 7453,
      "dợi": 7454,
      "dộc": 7455,
      "dức": 7456,
      "dươi": 7457,
      "duyện": 7458,
      "dặp": 7459,
      "dộn": 7460,
      "déo": 7461,
      "dơm": 7462,
      "dão": 7463,
      "dảy": 7464,
      "dênh": 7465,
      "dện": 7466,
      "dóm": 7467,
      "dom": 7468,
      "dứng": 7469,
      "dẩm": 7470,
      "dấng": 7471,
      "dẩng": 7472,
      "dợm": 7473,
      "dệu": 7474,
      "dăt": 7475,
      "dươmg": 7476,
      "ei": 7477,
      "eṃ": 7478,
      "fh": 7479,
      "fo": 7480,
      "fùng": 7481,
      "fúc": 7482,
      "gé": 7483,
      "gọ": 7484,
      "gl": 7485,
      "gình": 7486,
      "gòng": 7487,
      "gỗi": 7488,
      "gùa": 7489,
      "gộc": 7490,
      "gen": 7491,
      "găn": 7492,
      "gẩn": 7493,
      "gem": 7494,
      "gám": 7495,
      "gịp": 7496,
      "gỡi": 7497,
      "gớt": 7498,
      "gúp": 7499,
      "gượn": 7500,
      "gưởi": 7501,
      "gặc": 7502,
      "gặn": 7503,
      "gính": 7504,
      "gượm": 7505,
      "gém": 7506,
      "gỉa": 7507,
      "gểnh": 7508,
      "gốp": 7509,
      "găt": 7510,
      "hỳ": 7511,
      "hỹ": 7512,
      "hữ": 7513,
      "hl": 7514,
      "hö": 7515,
      "hươ": 7516,
      "hiều": 7517,
      "hau": 7518,
      "hỗi": 7519,
      "hữa": 7520,
      "hươi": 7521,
      "họi": 7522,
      "hiêng": 7523,
      "hùi": 7524,
      "hấm": 7525,
      "hặt": 7526,
      "hỉnh": 7527,
      "hép": 7528,
      "hích": 7529,
      "hõng": 7530,
      "hẳm": 7531,
      "háp": 7532,
      "hươn": 7533,
      "hém": 7534,
      "hếu": 7535,
      "hũng": 7536,
      "hỉm": 7537,
      "húm": 7538,
      "hươm": 7539,
      "hía": 7540,
      "hểnh": 7541,
      "hẻn": 7542,
      "hỏm": 7543,
      "hĩm": 7544,
      "it": 7545,
      "je": 7546,
      "jong": 7547,
      "kẹ": 7548,
      "kao": 7549,
      "kồng": 7550,
      "kải": 7551,
      "kác": 7552,
      "kỏi": 7553,
      "kách": 7554,
      "kin": 7555,
      "kom": 7556,
      "kếu": 7557,
      "kéc": 7558,
      "kkh": 7559,
      "lế": 7560,
      "lt": 7561,
      "lồn": 7562,
      "lống": 7563,
      "lốn": 7564,
      "lẹp": 7565,
      "lấc": 7566,
      "lườn": 7567,
      "lướng": 7568,
      "liếu": 7569,
      "lẫu": 7570,
      "lỗng": 7571,
      "lẵn": 7572,
      "liềng": 7573,
      "lịu": 7574,
      "lĩm": 7575,
      "lứu": 7576,
      "mp": 7577,
      "mẫ": 7578,
      "mấ": 7579,
      "mẵ": 7580,
      "ms": 7581,
      "mươ": 7582,
      "mên": 7583,
      "mêm": 7584,
      "mam": 7585,
      "múng": 7586,
      "mằm": 7587,
      "mòa": 7588,
      "mẻo": 7589,
      "mớt": 7590,
      "mìa": 7591,
      "mịnh": 7592,
      "mứng": 7593,
      "mượm": 7594,
      "mửng": 7595,
      "mũng": 7596,
      "mốm": 7597,
      "mụp": 7598,
      "miểu": 7599,
      "mỉn": 7600,
      "mươì": 7601,
      "mứu": 7602,
      "mẳy": 7603,
      "nm": 7604,
      "nồ": 7605,
      "ny": 7606,
      "nủ": 7607,
      "nú": 7608,
      "nự": 7609,
      "nũ": 7610,
      "nẽ": 7611,
      "nl": 7612,
      "nf": 7613,
      "nời": 7614,
      "nình": 7615,
      "nười": 7616,
      "nướ": 7617,
      "nau": 7618,
      "náng": 7619,
      "nắt": 7620,
      "nẳng": 7621,
      "nãi": 7622,
      "nơn": 7623,
      "nươi": 7624,
      "nác": 7625,
      "nỏi": 7626,
      "nọn": 7627,
      "nủa": 7628,
      "nộn": 7629,
      "nềm": 7630,
      "niệu": 7631,
      "nầng": 7632,
      "nẫy": 7633,
      "niệng": 7634,
      "nính": 7635,
      "nớn": 7636,
      "nún": 7637,
      "nướn": 7638,
      "niễng": 7639,
      "oc": 7640,
      "oy": 7641,
      "oong": 7642,
      "oắt": 7643,
      "oát": 7644,
      "oác": 7645,
      "oánh": 7646,
      "oách": 7647,
      "oặt": 7648,
      "oặn": 7649,
      "pồ": 7650,
      "pố": 7651,
      "pl": 7652,
      "pày": 7653,
      "pìn": 7654,
      "pót": 7655,
      "pít": 7656,
      "pun": 7657,
      "pốp": 7658,
      "péc": 7659,
      "qưa": 7660,
      "qéo": 7661,
      "ró": 7662,
      "rố": 7663,
      "rỷ": 7664,
      "róng": 7665,
      "rấy": 7666,
      "riền": 7667,
      "rết": 7668,
      "rật": 7669,
      "rèo": 7670,
      "rặp": 7671,
      "rem": 7672,
      "rãy": 7673,
      "rượng": 7674,
      "róm": 7675,
      "rúp": 7676,
      "rệt": 7677,
      "ráy": 7678,
      "rẫm": 7679,
      "rãng": 7680,
      "rõng": 7681,
      "rẩm": 7682,
      "rếu": 7683,
      "rùn": 7684,
      "rợm": 7685,
      "râp": 7686,
      "sị": 7687,
      "sắ": 7688,
      "sẵ": 7689,
      "sường": 7690,
      "sối": 7691,
      "sốn": 7692,
      "sật": 7693,
      "sộc": 7694,
      "sằng": 7695,
      "sọn": 7696,
      "sọng": 7697,
      "sán": 7698,
      "súa": 7699,
      "sòai": 7700,
      "sãy": 7701,
      "sứa": 7702,
      "sỉnh": 7703,
      "sóa": 7704,
      "sép": 7705,
      "sóm": 7706,
      "sáy": 7707,
      "som": 7708,
      "sằn": 7709,
      "sõng": 7710,
      "sìu": 7711,
      "sĩnh": 7712,
      "sưỡi": 7713,
      "sòe": 7714,
      "sòi": 7715,
      "sặm": 7716,
      "sịu": 7717,
      "sỉu": 7718,
      "sệch": 7719,
      "sạy": 7720,
      "séc": 7721,
      "sâù": 7722,
      "séng": 7723,
      "sti": 7724,
      "sẹc": 7725,
      "tm": 7726,
      "tb": 7727,
      "tĩ": 7728,
      "tữ": 7729,
      "tươ": 7730,
      "tười": 7731,
      "tẫn": 7732,
      "tạn": 7733,
      "tọi": 7734,
      "tởi": 7735,
      "tõi": 7736,
      "tặt": 7737,
      "tóa": 7738,
      "tớt": 7739,
      "tướm": 7740,
      "tớn": 7741,
      "tõa": 7742,
      "tấng": 7743,
      "tịu": 7744,
      "tệch": 7745,
      "tũm": 7746,
      "tĩm": 7747,
      "uề": 7748,
      "uây": 7749,
      "uẫn": 7750,
      "uật": 7751,
      "uóc": 7752,
      "uôm": 7753,
      "uot": 7754,
      "vỳ": 7755,
      "vủ": 7756,
      "vt": 7757,
      "vắ": 7758,
      "vẫ": 7759,
      "vừ": 7760,
      "vể": 7761,
      "vă": 7762,
      "vx": 7763,
      "vười": 7764,
      "vường": 7765,
      "vượ": 7766,
      "vược": 7767,
      "vức": 7768,
      "vốt": 7769,
      "või": 7770,
      "vãy": 7771,
      "vưu": 7772,
      "vèn": 7773,
      "vẫm": 7774,
      "vỏng": 7775,
      "viến": 7776,
      "vón": 7777,
      "vẵn": 7778,
      "vếu": 7779,
      "vựng": 7780,
      "vủng": 7781,
      "vếch": 7782,
      "văt": 7783,
      "vẹm": 7784,
      "way": 7785,
      "xồ": 7786,
      "xỗ": 7787,
      "xộ": 7788,
      "xằ": 7789,
      "xọ": 7790,
      "xày": 7791,
      "xồi": 7792,
      "xành": 7793,
      "xái": 7794,
      "xọt": 7795,
      "xặng": 7796,
      "xìm": 7797,
      "xược": 7798,
      "xìn": 7799,
      "xừa": 7800,
      "xấn": 7801,
      "xốt": 7802,
      "xấc": 7803,
      "xớm": 7804,
      "xấm": 7805,
      "xơm": 7806,
      "xìa": 7807,
      "xướt": 7808,
      "xón": 7809,
      "xáp": 7810,
      "xổng": 7811,
      "xịa": 7812,
      "xụt": 7813,
      "xẹo": 7814,
      "xủng": 7815,
      "xĩa": 7816,
      "xiểt": 7817,
      "yh": 7818,
      "yt": 7819,
      "yen": 7820,
      "yệu": 7821,
      "yều": 7822,
      "yok": 7823,
      "yeu": 7824,
      "zụ": 7825,
      "zú": 7826,
      "zơ": 7827,
      "zời": 7828,
      "zông": 7829,
      "zàng": 7830,
      "zôn": 7831,
      "záo": 7832,
      "zìa": 7833,
      "zum": 7834,
      "àk": 7835,
      "ành": 7836,
      "âp": 7837,
      "âi": 7838,
      "âú": 7839,
      "ãi": 7840,
      "ãnh": 7841,
      "èn": 7842,
      "ìn": 7843,
      "òi": 7844,
      "òan": 7845,
      "òam": 7846,
      "ói": 7847,
      "óa": 7848,
      "ăng": 7849,
      "đỳ": 7850,
      "đr": 7851,
      "đé": 7852,
      "đí": 7853,
      "đụ": 7854,
      "đẫ": 7855,
      "đẳ": 7856,
      "đỉ": 7857,
      "đũ": 7858,
      "đuyên": 7859,
      "đươi": 7860,
      "đỏi": 7861,
      "đăn": 7862,
      "đâng": 7863,
      "đủa": 7864,
      "đẩn": 7865,
      "đéo": 7866,
      "đảy": 7867,
      "đườn": 7868,
      "đén": 7869,
      "đỗng": 7870,
      "đúp": 7871,
      "đượn": 7872,
      "đễn": 7873,
      "đưởng": 7874,
      "đẹt": 7875,
      "đườm": 7876,
      "đăy": 7877,
      "ưở": 7878,
      "ượt": 7879,
      "ạn": 7880,
      "ấỵ": 7881,
      "ấng": 7882,
      "ầø": 7883,
      "ẩp": 7884,
      "ẩy": 7885,
      "ẫy": 7886,
      "ậy": 7887,
      "ậng": 7888,
      "ắn": 7889,
      "ẳng": 7890,
      "ặng": 7891,
      "ẹc": 7892,
      "ẽo": 7893,
      "ếp": 7894,
      "ềm": 7895,
      "ỉa": 7896,
      "ọt": 7897,
      "ốt": 7898,
      "ốốc": 7899,
      "ồm": 7900,
      "ộc": 7901,
      "ớm": 7902,
      "ởi": 7903,
      "ợi": 7904,
      "ợt": 7905,
      "ục": 7906,
      "ủm": 7907,
      "ừm": 7908,
      "ựa": 7909,
      "️m": 7910,
      "️n": 7911,
      "️b": 7912,
      "️ng": 7913,
      "￼￼￼￼￼": 7914,
      "##hau": 7915,
      "##ur": 7916,
      "##uồn": 7917,
      "##uến": 7918,
      "##oai": 7919,
      "##rái": 7920,
      "##rụng": 7921,
      "##nf": 7922,
      "##ia": 7923,
      "##ik": 7924,
      "##ij": 7925,
      "##ick": 7926,
      "##yuến": 7927,
      "##th": 7928,
      "##tä": 7929,
      "##ten": 7930,
      "##al": 7931,
      "##arl": 7932,
      "##ôt": 7933,
      "##ổc": 7934,
      "##ổt": 7935,
      "##es": 7936,
      "##ej": 7937,
      "##ein": 7938,
      "##eeng": 7939,
      "##eik": 7940,
      "##êh": 7941,
      "##êp": 7942,
      "##êg": 7943,
      "##êú": 7944,
      "##bg": 7945,
      "##bj": 7946,
      "##buồn": 7947,
      "##ìng": 7948,
      "##èu": 7949,
      "##ých": 7950,
      "##ẹng": 7951,
      "##ẳnh": 7952,
      "##ểt": 7953,
      "##ểng": 7954,
      "##ỡu": 7955,
      "##ẻu": 7956,
      "##ăp": 7957,
      "##sn": 7958,
      "##ses": 7959,
      "##lbuồn": 7960,
      "##wn": 7961,
      "##wng": 7962,
      "##ze": 7963,
      "thỳ": 7964,
      "thá": 7965,
      "thé": 7966,
      "thuy": 7967,
      "thồng": 7968,
      "thồi": 7969,
      "thêng": 7970,
      "thăn": 7971,
      "thấc": 7972,
      "thằm": 7973,
      "thớm": 7974,
      "thúi": 7975,
      "thiềm": 7976,
      "thặt": 7977,
      "thặc": 7978,
      "thươn": 7979,
      "thửng": 7980,
      "thãn": 7981,
      "thồm": 7982,
      "thín": 7983,
      "thươmg": 7984,
      "chẳ": 7985,
      "chỡ": 7986,
      "chố": 7987,
      "chỏ": 7988,
      "chĩ": 7989,
      "chỷ": 7990,
      "chl": 7991,
      "chên": 7992,
      "chười": 7993,
      "chêu": 7994,
      "chến": 7995,
      "chạt": 7996,
      "chẹp": 7997,
      "chại": 7998,
      "chẹn": 7999,
      "chỏi": 8000,
      "châng": 8001,
      "chậy": 8002,
      "chãy": 8003,
      "chám": 8004,
      "chỗng": 8005,
      "chướm": 8006,
      "chụi": 8007,
      "chóm": 8008,
      "chệt": 8009,
      "cháp": 8010,
      "chứt": 8011,
      "chẩu": 8012,
      "chậc": 8013,
      "chựng": 8014,
      "chẩng": 8015,
      "chựu": 8016,
      "chệu": 8017,
      "chéc": 8018,
      "châc": 8019,
      "chyên": 8020,
      "chẳy": 8021,
      "chyuến": 8022,
      "chôt": 8023,
      "chẹng": 8024,
      "chsn": 8025,
      "ngườ": 8026,
      "ngối": 8027,
      "ngổi": 8028,
      "ngộc": 8029,
      "ngen": 8030,
      "nguyệ": 8031,
      "ngìn": 8032,
      "ngôm": 8033,
      "ngiệt": 8034,
      "ngáu": 8035,
      "ngảng": 8036,
      "ngảy": 8037,
      "ngén": 8038,
      "ngảnh": 8039,
      "ngưởi": 8040,
      "ngiệp": 8041,
      "ngẩu": 8042,
      "ngạp": 8043,
      "ngẽo": 8044,
      "ngớp": 8045,
      "ngẵm": 8046,
      "ngệch": 8047,
      "ngâp": 8048,
      "ngât": 8049,
      "ngĩa": 8050,
      "tró": 8051,
      "trô": 8052,
      "trè": 8053,
      "trẹ": 8054,
      "trỉ": 8055,
      "trẽ": 8056,
      "trất": 8057,
      "truyên": 8058,
      "trặng": 8059,
      "trộc": 8060,
      "trền": 8061,
      "tren": 8062,
      "trức": 8063,
      "trươi": 8064,
      "trốt": 8065,
      "trấc": 8066,
      "trùi": 8067,
      "trắn": 8068,
      "trảo": 8069,
      "trén": 8070,
      "trỉnh": 8071,
      "trèm": 8072,
      "trúp": 8073,
      "trom": 8074,
      "trãng": 8075,
      "trõng": 8076,
      "trờn": 8077,
      "trít": 8078,
      "trỏng": 8079,
      "trổng": 8080,
      "trếu": 8081,
      "trẽo": 8082,
      "trủng": 8083,
      "trỉn": 8084,
      "trệu": 8085,
      "trệch": 8086,
      "trăc": 8087,
      "trươc": 8088,
      "trũm": 8089,
      "trẹm": 8090,
      "nhồ": 8091,
      "nhụ": 8092,
      "nhõ": 8093,
      "nhứ": 8094,
      "nhẻ": 8095,
      "nhµ": 8096,
      "nhày": 8097,
      "nhơi": 8098,
      "nhêng": 8099,
      "nhiêng": 8100,
      "nhâng": 8101,
      "nhán": 8102,
      "nhậy": 8103,
      "nhiềm": 8104,
      "nhúa": 8105,
      "nhãy": 8106,
      "nhám": 8107,
      "nhạch": 8108,
      "nhiu": 8109,
      "nhứng": 8110,
      "nhiễn": 8111,
      "nhẵng": 8112,
      "nhín": 8113,
      "nhịu": 8114,
      "nhểnh": 8115,
      "nhũi": 8116,
      "nhộp": 8117,
      "nhệch": 8118,
      "nhễu": 8119,
      "nhâp": 8120,
      "nhât": 8121,
      "giồ": 8122,
      "giớ": 8123,
      "giừ": 8124,
      "giối": 8125,
      "giạn": 8126,
      "giại": 8127,
      "giộng": 8128,
      "giặp": 8129,
      "giửi": 8130,
      "giứa": 8131,
      "giẫu": 8132,
      "giụi": 8133,
      "giạm": 8134,
      "giứt": 8135,
      "giậc": 8136,
      "giệu": 8137,
      "giât": 8138,
      "giâý": 8139,
      "girl": 8140,
      "giâc": 8141,
      "khồ": 8142,
      "khé": 8143,
      "khớ": 8144,
      "khỗ": 8145,
      "khươ": 8146,
      "khưa": 8147,
      "khây": 8148,
      "khồn": 8149,
      "khới": 8150,
      "khấy": 8151,
      "khốt": 8152,
      "khấc": 8153,
      "khộng": 8154,
      "khảng": 8155,
      "khúa": 8156,
      "khẻo": 8157,
      "khỏng": 8158,
      "khềnh": 8159,
      "khưởng": 8160,
      "khẹt": 8161,
      "khòi": 8162,
      "khịu": 8163,
      "khươu": 8164,
      "khằc": 8165,
      "khăp": 8166,
      "quâ": 8167,
      "qué": 8168,
      "quề": 8169,
      "quêu": 8170,
      "quau": 8171,
      "quới": 8172,
      "quắm": 8173,
      "quằng": 8174,
      "quền": 8175,
      "quặp": 8176,
      "quặc": 8177,
      "quẵn": 8178,
      "quấng": 8179,
      "quệch": 8180,
      "phạ": 8181,
      "phưa": 8182,
      "phành": 8183,
      "phược": 8184,
      "phừa": 8185,
      "phốt": 8186,
      "phem": 8187,
      "phốc": 8188,
      "phùi": 8189,
      "phắn": 8190,
      "phênh": 8191,
      "phướng": 8192,
      "phứa": 8193,
      "phượt": 8194,
      "phiện": 8195,
      "phích": 8196,
      "phúp": 8197,
      "phom": 8198,
      "phĩnh": 8199,
      "phớn": 8200,
      "phịa": 8201,
      "phưởng": 8202,
      "phẹt": 8203,
      "phưỡn": 8204,
      "##ôis": 8205,
      "tìnhh": 8206,
      "mộp": 8207,
      "xan": 8208,
      "conf": 8209,
      "đin": 8210,
      "điừ": 8211,
      "nghó": 8212,
      "nghu": 8213,
      "nghủ": 8214,
      "nghô": 8215,
      "nghẹ": 8216,
      "nghỡ": 8217,
      "nghở": 8218,
      "nghơ": 8219,
      "nghên": 8220,
      "nghọt": 8221,
      "nghẹp": 8222,
      "nghét": 8223,
      "nghịnh": 8224,
      "nghít": 8225,
      "nghẹo": 8226,
      "nghẻn": 8227,
      "nhớm": 8228,
      "choăng": 8229,
      "choãi": 8230,
      "choác": 8231,
      "choại": 8232,
      "choèn": 8233,
      "choãng": 8234,
      "choẹt": 8235,
      "thơì": 8236,
      "thơng": 8237,
      "tac": 8238,
      "thươngì": 8239,
      "hop": 8240,
      "hoc": 8241,
      "hot": 8242,
      "hoảnh": 8243,
      "màrụng": 8244,
      "xuay": 8245,
      "xuỗng": 8246,
      "xuổng": 8247,
      "nhưạ": 8248,
      "##ượu": 8249,
      "hoaj": 8250,
      "đão": 8251,
      "buống": 8252,
      "buởi": 8253,
      "buốc": 8254,
      "buỗng": 8255,
      "buớc": 8256,
      "mẹc": 8257,
      "xuânc": 8258,
      "thuân": 8259,
      "thuốn": 8260,
      "thuộn": 8261,
      "cảu": 8262,
      "quênh": 8263,
      "đườngb": 8264,
      "chip": 8265,
      "ching": 8266,
      "chiển": 8267,
      "chiyên": 8268,
      "tiinh": 8269,
      "tich": 8270,
      "tiễu": 8271,
      "tiêt": 8272,
      "tiéng": 8273,
      "titi": 8274,
      "tieng": 8275,
      "tiểng": 8276,
      "vuì": 8277,
      "vuởng": 8278,
      "vuờn": 8279,
      "vuớng": 8280,
      "đâug": 8281,
      "mưaa": 8282,
      "quam": 8283,
      "nắngwng": 8284,
      "hươngg": 8285,
      "cun": 8286,
      "cuần": 8287,
      "cuỡi": 8288,
      "tiếq": 8289,
      "muồn": 8290,
      "muỗn": 8291,
      "thìu": 8292,
      "tuôi": 8293,
      "tuỗi": 8294,
      "tuốc": 8295,
      "tuýt": 8296,
      "nơil": 8297,
      "lám": 8298,
      "gìàn": 8299,
      "gìum": 8300,
      "khiễn": 8301,
      "rum": 8302,
      "rui": 8303,
      "rut": 8304,
      "ruồn": 8305,
      "ruối": 8306,
      "ruých": 8307,
      "đôngf": 8308,
      "chỉa": 8309,
      "thếu": 8310,
      "tìmh": 8311,
      "bờn": 8312,
      "timh": 8313,
      "vìd": 8314,
      "ghị": 8315,
      "gho": 8316,
      "ghồ": 8317,
      "ghỡ": 8318,
      "ghỉ": 8319,
      "ghj": 8320,
      "ghên": 8321,
      "ghêm": 8322,
      "ghìn": 8323,
      "ghem": 8324,
      "ghượng": 8325,
      "ghịt": 8326,
      "ghểnh": 8327,
      "bac": 8328,
      "bath": 8329,
      "tíến": 8330,
      "côt": 8331,
      "côống": 8332,
      "lut": 8333,
      "luong": 8334,
      "luất": 8335,
      "luốn": 8336,
      "luốt": 8337,
      "luỗng": 8338,
      "luợm": 8339,
      "đầyu": 8340,
      "thềnh": 8341,
      "lot": 8342,
      "loong": 8343,
      "loăng": 8344,
      "loạnh": 8345,
      "nụt": 8346,
      "nụng": 8347,
      "kiếng": 8348,
      "chơiỉ": 8349,
      "khoong": 8350,
      "khoẳng": 8351,
      "khoằng": 8352,
      "khoắn": 8353,
      "khoáy": 8354,
      "khoẳnh": 8355,
      "cac": 8356,
      "cat": 8357,
      "lệu": 8358,
      "tưở": 8359,
      "tưoi": 8360,
      "tưỡng": 8361,
      "thooai": 8362,
      "dạu": 8363,
      "chuá": 8364,
      "chuc": 8365,
      "chuôi": 8366,
      "chuễnh": 8367,
      "chuỗm": 8368,
      "chuổc": 8369,
      "sun": 8370,
      "suong": 8371,
      "suống": 8372,
      "suột": 8373,
      "suộm": 8374,
      "suổt": 8375,
      "tỏ̉": 8376,
      "chíb": 8377,
      "chịm": 8378,
      "chịi": 8379,
      "chịa": 8380,
      "máp": 8381,
      "thanhi": 8382,
      "kiép": 8383,
      "kiêp": 8384,
      "đóni": 8385,
      "thah": 8386,
      "thaọ": 8387,
      "thatä": 8388,
      "quynh": 8389,
      "quyen": 8390,
      "quyet": 8391,
      "hờm": 8392,
      "hờng": 8393,
      "cỏng": 8394,
      "mờì": 8395,
      "thầmì": 8396,
      "giữã": 8397,
      "khuý": 8398,
      "khuể": 8399,
      "khuắng": 8400,
      "khuệnh": 8401,
      "khuýt": 8402,
      "đỏa": 8403,
      "nhưngx": 8404,
      "trămg": 8405,
      "anb": 8406,
      "annh": 8407,
      "bều": 8408,
      "lớng": 8409,
      "họm": 8410,
      "ngủn": 8411,
      "đoc": 8412,
      "đoa": 8413,
      "đoong": 8414,
      "đoóc": 8415,
      "saơ": 8416,
      "khuye": 8417,
      "khuyếch": 8418,
      "top": 8419,
      "toong": 8420,
      "toách": 8421,
      "tour": 8422,
      "nguồi": 8423,
      "nguôn": 8424,
      "nguậy": 8425,
      "nguoi": 8426,
      "nguẫy": 8427,
      "nguệch": 8428,
      "nuồng": 8429,
      "nuống": 8430,
      "nuận": 8431,
      "nuóc": 8432,
      "giaan": 8433,
      "ngoạc": 8434,
      "ngoéo": 8435,
      "ngoạm": 8436,
      "nóp": 8437,
      "thich": 8438,
      "thiêt": 8439,
      "thiet": 8440,
      "lưngi": 8441,
      "lỡng": 8442,
      "lyn": 8443,
      "đuê": 8444,
      "đuồi": 8445,
      "đuỗi": 8446,
      "đuỗn": 8447,
      "lụcj": 8448,
      "tinn": 8449,
      "hồm": 8450,
      "kím": 8451,
      "hoangg": 8452,
      "dui": 8453,
      "duôi": 8454,
      "duống": 8455,
      "duột": 8456,
      "hưóng": 8457,
      "xot": 8458,
      "xoạng": 8459,
      "xoẹt": 8460,
      "tinhh": 8461,
      "chớn": 8462,
      "daị": 8463,
      "phủn": 8464,
      "hàu": 8465,
      "soing": 8466,
      "xứt": 8467,
      "nhanhg": 8468,
      "sựng": 8469,
      "nhum": 8470,
      "nhun": 8471,
      "nhuế": 8472,
      "nhuể": 8473,
      "nhuôn": 8474,
      "nhuôm": 8475,
      "ngõng": 8476,
      "cốp": 8477,
      "six": 8478,
      "sing": 8479,
      "size": 8480,
      "lụm": 8481,
      "lụp": 8482,
      "mim": 8483,
      "mia": 8484,
      "miêm": 8485,
      "điệm": 8486,
      "ngàm": 8487,
      "cheng": 8488,
      "tínhh": 8489,
      "tuyễn": 8490,
      "tuyêt": 8491,
      "tuyểt": 8492,
      "têt": 8493,
      "lẻm": 8494,
      "điểng": 8495,
      "tửởng": 8496,
      "bểnh": 8497,
      "sex": 8498,
      "thưỡ": 8499,
      "thưởi": 8500,
      "viẹt": 8501,
      "viẹc": 8502,
      "vest": 8503,
      "senses": 8504,
      "sốg": 8505,
      "khỏang": 8506,
      "tròm": 8507,
      "khôg": 8508,
      "quých": 8509,
      "dựt": 8510,
      "dởn": 8511,
      "béng": 8512,
      "huông": 8513,
      "huýt": 8514,
      "noong": 8515,
      "bènh": 8516,
      "xếch": 8517,
      "thứu": 8518,
      "thứơt": 8519,
      "trim": 8520,
      "triũ": 8521,
      "triêm": 8522,
      "lảm": 8523,
      "dưôis": 8524,
      "suyễn": 8525,
      "suyển": 8526,
      "lêân": 8527,
      "dol": 8528,
      "down": 8529,
      "lià": 8530,
      "lich": 8531,
      "liiếp": 8532,
      "chỗm": 8533,
      "vụm": 8534,
      "mac": 8535,
      "phuc": 8536,
      "phua": 8537,
      "phuông": 8538,
      "phuọng": 8539,
      "thùn": 8540,
      "bốm": 8541,
      "nguyêh": 8542,
      "dia": 8543,
      "dich": 8544,
      "dièu": 8545,
      "chuyễn": 8546,
      "đồì": 8547,
      "ngỏn": 8548,
      "phiá": 8549,
      "bẽm": 8550,
      "cop": 8551,
      "coong": 8552,
      "coai": 8553,
      "coóc": 8554,
      "trut": 8555,
      "trus": 8556,
      "truồi": 8557,
      "truờn": 8558,
      "hềnh": 8559,
      "chủm": 8560,
      "uyn": 8561,
      "nghiêg": 8562,
      "tậpj": 8563,
      "soăn": 8564,
      "soáy": 8565,
      "bòm": 8566,
      "nauy": 8567,
      "thửo": 8568,
      "thửở": 8569,
      "sanv": 8570,
      "tụa": 8571,
      "dòang": 8572,
      "dòan": 8573,
      "dòanh": 8574,
      "nhiǹ": 8575,
      "nhiêm": 8576,
      "nhiẻu": 8577,
      "héc": 8578,
      "đôc": 8579,
      "đôạn": 8580,
      "rẽo": 8581,
      "nàỳ": 8582,
      "nàò": 8583,
      "bônp": 8584,
      "môí": 8585,
      "gap": 8586,
      "nhoam": 8587,
      "nhoét": 8588,
      "nhoạm": 8589,
      "xoaay": 8590,
      "bía": 8591,
      "chều": 8592,
      "xéng": 8593,
      "dãnh": 8594,
      "nôí": 8595,
      "nhảu": 8596,
      "ngưồi": 8597,
      "ghếnh": 8598,
      "bẻn": 8599,
      "týp": 8600,
      "melbuồn": 8601,
      "tỉn": 8602,
      "nic": 8603,
      "nich": 8604,
      "hôị": 8605,
      "lónh": 8606,
      "hởm": 8607,
      "gãnh": 8608,
      "rảii": 8609,
      "mạg": 8610,
      "mạy": 8611,
      "xẻn": 8612,
      "leej": 8613,
      "tronh": 8614,
      "troai": 8615,
      "trobg": 8616,
      "dều": 8617,
      "hêt": 8618,
      "roa": 8619,
      "roăng": 8620,
      "room": 8621,
      "roãng": 8622,
      "đuôii": 8623,
      "chơt": 8624,
      "gui": 8625,
      "guan": 8626,
      "guật": 8627,
      "guầng": 8628,
      "moỉ": 8629,
      "moệt": 8630,
      "mooc": 8631,
      "bõn": 8632,
      "vac": 8633,
      "vat": 8634,
      "duyêm": 8635,
      "duyềnh": 8636,
      "chòanh": 8637,
      "xia": 8638,
      "xieu": 8639,
      "tớp": 8640,
      "riú": 8641,
      "riênh": 8642,
      "khưỡng": 8643,
      "xàu": 8644,
      "hệch": 8645,
      "vêt": 8646,
      "cưc": 8647,
      "box": 8648,
      "boùng": 8649,
      "boóc": 8650,
      "boăn": 8651,
      "thei": 8652,
      "thẻn": 8653,
      "thưởu": 8654,
      "thụn": 8655,
      "tều": 8656,
      "pal": 8657,
      "tủn": 8658,
      "dụa": 8659,
      "hat": 8660,
      "khat": 8661,
      "đec": 8662,
      "pháck": 8663,
      "làiỉ": 8664,
      "nghịc": 8665,
      "cỡm": 8666,
      "chumg": 8667,
      "nhíp": 8668,
      "đơàn": 8669,
      "đừơng": 8670,
      "hũu": 8671,
      "hũn": 8672,
      "quờa": 8673,
      "quee": 8674,
      "míc": 8675,
      "míít": 8676,
      "rỏm": 8677,
      "phảí": 8678,
      "goong": 8679,
      "koo": 8680,
      "xíết": 8681,
      "phow": 8682,
      "phoọc": 8683,
      "facebo": 8684,
      "gíó": 8685,
      "lựơn": 8686,
      "lựợn": 8687,
      "xổm": 8688,
      "rei": 8689,
      "ream": 8690,
      "nhĩa": 8691,
      "ngừi": 8692,
      "lumg": 8693,
      "cừơi": 8694,
      "dzè": 8695,
      "dzung": 8696,
      "dziên": 8697,
      "dzậy": 8698,
      "dzớt": 8699,
      "rờm": 8700,
      "sảí": 8701,
      "chồmg": 8702,
      "hừn": 8703,
      "xèng": 8704,
      "cữi": 8705,
      "gioãng": 8706,
      "del": 8707,
      "xuynh": 8708,
      "khúy": 8709,
      "cựp": 8710,
      "fee": 8711,
      "bụị": 8712,
      "xòam": 8713,
      "thyền": 8714,
      "kaf": 8715,
      "rơt": 8716,
      "shu": 8717,
      "shan": 8718,
      "quỵt": 8719,
      "găy": 8720,
      "rởm": 8721,
      "tuỵệt": 8722,
      "tuỵet": 8723,
      "rỗn": 8724,
      "rỗnh": 8725,
      "trờì": 8726,
      "nhòam": 8727,
      "donal": 8728,
      "rím": 8729,
      "ríc": 8730,
      "slao": 8731,
      "quoắt": 8732,
      "tuýp": 8733,
      "tuých": 8734,
      "ghẹm": 8735,
      "ddể": 8736,
      "ddêm": 8737,
      "ddằng": 8738,
      "hụệ": 8739,
      "nọct": 8740,
      "xờm": 8741,
      "trưỡng": 8742,
      "gờm": 8743,
      "mgơ": 8744,
      "mgười": 8745,
      "mgot": 8746,
      "mghi": 8747,
      "yểng": 8748,
      "đưá": 8749,
      "đưôi": 8750,
      "nghoèo": 8751,
      "nguỵện": 8752,
      "nứu": 8753,
      "nứoc": 8754,
      "rưc": 8755,
      "rưmg": 8756,
      "rưượu": 8757,
      "yêmd": 8758,
      "bâo": 8759,
      "puông": 8760,
      "qoay": 8761,
      "qoạnh": 8762,
      "qoặn": 8763,
      "wow": 8764,
      "️tr": 8765,
      "bbình": 8766,
      "bbỗng": 8767,
      "băts": 8768,
      "góy": 8769,
      "gĩư": 8770,
      "hểt": 8771,
      "kut": 8772,
      "mhau": 8773,
      "mhắn": 8774,
      "mâi": 8775,
      "mưôn": 8776,
      "mưỡu": 8777,
      "new": 8778,
      "pearl": 8779,
      "rhương": 8780,
      "rhein": 8781,
      "vầg": 8782,
      "web": 8783,
      "wed": 8784,
      "yoóc": 8785,
      "zdô": 8786,
      "zdia": 8787,
      "thóang": 8788,
      "chõn": 8789,
      "giup": 8790,
      "ơiiii": 8791,
      "ơiiiii": 8792,
      "ngoạị": 8793,
      "valenten": 8794,
      "bứơm": 8795,
      "vộl": 8796,
      "đựoc": 8797,
      "bặch": 8798,
      "bừu": 8799,
      "bjết": 8800,
      "cpnf": 8801,
      "crô": 8802,
      "cânh": 8803,
      "ciang": 8804,
      "click": 8805,
      "ccháu": 8806,
      "dứới": 8807,
      "dẵu": 8808,
      "dươiù": 8809,
      "fhay": 8810,
      "for": 8811,
      "gọị": 8812,
      "glong": 8813,
      "hlnh": 8814,
      "höõng": 8815,
      "hươg": 8816,
      "jean": 8817,
      "kkhắc": 8818,
      "lếp": 8819,
      "ltrái": 8820,
      "mpij": 8821,
      "mẫi": 8822,
      "mấý": 8823,
      "mẵi": 8824,
      "mươbj": 8825,
      "mamg": 8826,
      "nmanh": 8827,
      "nủn": 8828,
      "núớc": 8829,
      "nựớc": 8830,
      "nlhau": 8831,
      "nfuyên": 8832,
      "pleik": 8833,
      "qưai": 8834,
      "sắoc": 8835,
      "sẵc": 8836,
      "tbương": 8837,
      "vtv": 8838,
      "vắy": 8839,
      "vừi": 8840,
      "vxác": 8841,
      "vượi": 8842,
      "xọp": 8843,
      "yhu": 8844,
      "yta": 8845,
      "zụk": 8846,
      "đrây": 8847,
      "đũn": 8848,
      "ưởn": 8849,
      "ầøu": 8850,
      "️một": 8851,
      "️người": 8852,
      "thươnv": 8853,
      "ngườì": 8854,
      "nguyệch": 8855,
      "tromg": 8856,
      "nắngwngs": 8857,
      "facebook": 8858,
      "donald": 8859,
      "mgotj": 8860,
      "mghieeng": 8861,
      "valentene": 8862,
      "pleiku": 8863,
      "aí": 8864,
      "aì": 8865,
      "bươ": 8866,
      "bỉm": 8867,
      "bẳn": 8868,
      "cươì": 8869,
      "dớ": 8870,
      "dươ": 8871,
      "dôn": 8872,
      "dói": 8873,
      "dèo": 8874,
      "ea": 8875,
      "gư": 8876,
      "gôi": 8877,
      "gốn": 8878,
      "gíu": 8879,
      "hc": 8880,
      "hẽ": 8881,
      "hềm": 8882,
      "lỏ": 8883,
      "liệp": 8884,
      "liểng": 8885,
      "liễng": 8886,
      "ní": 8887,
      "niệt": 8888,
      "náy": 8889,
      "nứng": 8890,
      "niểng": 8891,
      "oẹ": 8892,
      "oảng": 8893,
      "qùi": 8894,
      "qụa": 8895,
      "qũy": 8896,
      "rịp": 8897,
      "rĩnh": 8898,
      "sé": 8899,
      "sất": 8900,
      "săng": 8901,
      "suyền": 8902,
      "séo": 8903,
      "sãn": 8904,
      "sụa": 8905,
      "tẽ": 8906,
      "tắng": 8907,
      "táu": 8908,
      "tợp": 8909,
      "uả": 8910,
      "uuyên": 8911,
      "uớt": 8912,
      "vưa": 8913,
      "vùa": 8914,
      "vấng": 8915,
      "xũ": 8916,
      "xiển": 8917,
      "xiểng": 8918,
      "xiểm": 8919,
      "yêú": 8920,
      "ze": 8921,
      "­­­­­­­­­": 8922,
      "óan": 8923,
      "đị": 8924,
      "đớ": 8925,
      "đd": 8926,
      "đớm": 8927,
      "đạch": 8928,
      "đâý": 8929,
      "̀l": 8930,
      "̂t": 8931,
      "̃nh": 8932,
      "ệch": 8933,
      "ỏe": 8934,
      "ờng": 8935,
      "‍ch": 8936,
      "️h": 8937,
      "️p": 8938,
      "️g": 8939,
      "️d": 8940,
      "️x": 8941,
      "️nh": 8942,
      "️an": 8943,
      "￼￼￼": 8944,
      "##hà": 8945,
      "##iờ": 8946,
      "##ơu": 8947,
      "##̉i": 8948,
      "##́̉i": 8949,
      "##̣i": 8950,
      "thấn": 8951,
      "thóa": 8952,
      "thện": 8953,
      "thiếng": 8954,
      "thỗn": 8955,
      "ngẳng": 8956,
      "ngãy": 8957,
      "ngạch": 8958,
      "trấp": 8959,
      "trịch": 8960,
      "nhừng": 8961,
      "giẹp": 8962,
      "giạng": 8963,
      "giẩy": 8964,
      "khủ": 8965,
      "khiếc": 8966,
      "phoi": 8967,
      "điạ": 8968,
      "nghờ": 8969,
      "nghàn": 8970,
      "nghiềm": 8971,
      "choé": 8972,
      "choẹ": 8973,
      "taị": 8974,
      "hoẵng": 8975,
      "không️": 8976,
      "nhà̀": 8977,
      "để́": 8978,
      "thuỹ": 8979,
      "cảy": 8980,
      "vuơng": 8981,
      "mơí": 8982,
      "cuôi": 8983,
      "rat": 8984,
      "muá": 8985,
      "muớt": 8986,
      "cùng̀": 8987,
      "rua": 8988,
      "rue": 8989,
      "cứi": 8990,
      "ghẽ": 8991,
      "ghinh": 8992,
      "loát": 8993,
      "trắng̉": 8994,
      "củac": 8995,
      "caí": 8996,
      "tưạ": 8997,
      "thoã": 8998,
      "bỏ́": 8999,
      "suý": 9000,
      "suớng": 9001,
      "chịụ": 9002,
      "hòaìng": 9003,
      "nhỏ̉": 9004,
      "dù̀": 9005,
      "chợn": 9006,
      "đỏ̉": 9007,
      "họan": 9008,
      "ngủng": 9009,
      "toỏng": 9010,
      "mừng̀": 9011,
      "nuí": 9012,
      "nuơng": 9013,
      "giaỉ": 9014,
      "giaỹ": 9015,
      "ngoải": 9016,
      "ngoảy": 9017,
      "ngoẻo": 9018,
      "nóí": 9019,
      "vơí": 9020,
      "thiá": 9021,
      "thiêú": 9022,
      "hạy": 9023,
      "hồnh": 9024,
      "đaò": 9025,
      "daọ": 9026,
      "vẻn": 9027,
      "lơì": 9028,
      "dễnh": 9029,
      "huý": 9030,
      "huớng": 9031,
      "dưạ": 9032,
      "phuợng": 9033,
      "diụ": 9034,
      "diêù": 9035,
      "coóng": 9036,
      "soọc": 9037,
      "chừìng": 9038,
      "trơì": 9039,
      "lònh": 9040,
      "lòang": 9041,
      "môĩ": 9042,
      "gaọ": 9043,
      "nôỉ": 9044,
      "nhủn": 9045,
      "ngưạ": 9046,
      "thọai": 9047,
      "ngựạ": 9048,
      "niú": 9049,
      "trừu": 9050,
      "monh": 9051,
      "vaò": 9052,
      "lưả": 9053,
      "khóat": 9054,
      "cưả": 9055,
      "lọan": 9056,
      "nẻi": 9057,
      "đơì": 9058,
      "ngọại": 9059,
      "goị": 9060,
      "trá́̉i": 9061,
      "gíao": 9062,
      "ngừơi": 9063,
      "dzách": 9064,
      "dzếnh": 9065,
      "nghễu": 9066,
      "nỗn": 9067,
      "đợ̣i": 9068,
      "hụê": 9069,
      "pid": 9070,
      "trưóc": 9071,
      "prông": 9072,
      "măcj": 9073,
      "rưả": 9074,
      "️ta": 9075,
      "️tình": 9076,
      "️tiển": 9077,
      "trựợt": 9078,
      "dâú": 9079,
      "️đi": 9080,
      "️đời": 9081,
      "️đông": 9082,
      "️đau": 9083,
      "bứơc": 9084,
      "rựơu": 9085,
      "vộị": 9086,
      "đựợc": 9087,
      "️câu": 9088,
      "️cầu": 9089,
      "️cũng": 9090,
      "khủyu": 9091,
      "️nên": 9092,
      "️nào": 9093,
      "️bình": 9094,
      "️biển": 9095,
      "￼￼￼￼￼￼￼￼￼": 9096,
      "️trẻ": 9097,
      "️trời": 9098,
      "dươí": 9099,
      "gưỉ": 9100,
      "gíup": 9101,
      "hẽm": 9102,
      "níp": 9103,
      "qụat": 9104,
      "­­­­­­­­­­­­­­­­­": 9105,
      "địêu": 9106,
      "đdọng": 9107,
      "̀lâu": 9108,
      "̂tiền": 9109,
      "̃nhìn": 9110,
      "‍chuyện": 9111,
      "️hôm": 9112,
      "️phà": 9113,
      "️giờ": 9114,
      "️dân": 9115,
      "️xa": 9116,
      "️nhân": 9117,
      "￼￼￼￼": 9118,
      "thóat": 9119,
      "️phàm": 9120
    }
  }
}